{
  "version": "1.0",
  "truncation": null,
  "padding": null,
  "added_tokens": [
    {
      "id": 0,
      "content": "[PAD]",
      "single_word": false,
      "lstrip": false,
      "rstrip": false,
      "normalized": false,
      "special": true
    },
    {
      "id": 1,
      "content": "[UNK]",
      "single_word": false,
      "lstrip": false,
      "rstrip": false,
      "normalized": false,
      "special": true
    },
    {
      "id": 2,
      "content": "[CLS]",
      "single_word": false,
      "lstrip": false,
      "rstrip": false,
      "normalized": false,
      "special": true
    },
    {
      "id": 3,
      "content": "[SEP]",
      "single_word": false,
      "lstrip": false,
      "rstrip": false,
      "normalized": false,
      "special": true
    },
    {
      "id": 4,
      "content": "[MASK]",
      "single_word": false,
      "lstrip": false,
      "rstrip": false,
      "normalized": false,
      "special": true
    }
  ],
  "normalizer": null,
  "pre_tokenizer": {
    "type": "Whitespace"
  },
  "post_processor": null,
  "decoder": null,
  "model": {
    "type": "BPE",
    "dropout": null,
    "unk_token": "[UNK]",
    "continuing_subword_prefix": null,
    "end_of_word_suffix": null,
    "fuse_unk": false,
    "byte_fallback": false,
    "vocab": {
      "[PAD]": 0,
      "[UNK]": 1,
      "[CLS]": 2,
      "[SEP]": 3,
      "[MASK]": 4,
      "!": 5,
      "\"": 6,
      "$": 7,
      "%": 8,
      "&": 9,
      "'": 10,
      "(": 11,
      ")": 12,
      "*": 13,
      "+": 14,
      ",": 15,
      "-": 16,
      ".": 17,
      "/": 18,
      "0": 19,
      "1": 20,
      "2": 21,
      "3": 22,
      "4": 23,
      "5": 24,
      "6": 25,
      "7": 26,
      "8": 27,
      "9": 28,
      ":": 29,
      "=": 30,
      "?": 31,
      "@": 32,
      "A": 33,
      "B": 34,
      "C": 35,
      "D": 36,
      "E": 37,
      "F": 38,
      "G": 39,
      "H": 40,
      "I": 41,
      "J": 42,
      "K": 43,
      "L": 44,
      "M": 45,
      "N": 46,
      "O": 47,
      "P": 48,
      "Q": 49,
      "R": 50,
      "S": 51,
      "T": 52,
      "U": 53,
      "V": 54,
      "W": 55,
      "X": 56,
      "Y": 57,
      "Z": 58,
      "[": 59,
      "\\": 60,
      "]": 61,
      "^": 62,
      "_": 63,
      "a": 64,
      "b": 65,
      "c": 66,
      "d": 67,
      "e": 68,
      "f": 69,
      "g": 70,
      "h": 71,
      "i": 72,
      "j": 73,
      "k": 74,
      "l": 75,
      "m": 76,
      "n": 77,
      "o": 78,
      "p": 79,
      "q": 80,
      "r": 81,
      "s": 82,
      "t": 83,
      "u": 84,
      "v": 85,
      "w": 86,
      "x": 87,
      "y": 88,
      "z": 89,
      "{": 90,
      "}": 91,
      "~": 92,
      "×": 93,
      "á": 94,
      "ã": 95,
      "ó": 96,
      "ü": 97,
      "Ā": 98,
      "♪": 99,
      "th": 100,
      "ou": 101,
      "in": 102,
      "er": 103,
      "on": 104,
      "an": 105,
      "at": 106,
      "re": 107,
      "you": 108,
      "to": 109,
      "the": 110,
      "ing": 111,
      "ll": 112,
      "me": 113,
      "is": 114,
      "le": 115,
      "or": 116,
      "it": 117,
      "en": 118,
      "st": 119,
      "se": 120,
      "ow": 121,
      "ar": 122,
      "he": 123,
      "ve": 124,
      "ay": 125,
      "ot": 126,
      "..": 127,
      "of": 128,
      "ed": 129,
      "al": 130,
      "ic": 131,
      "es": 132,
      "as": 133,
      "et": 134,
      "ere": 135,
      "id": 136,
      "be": 137,
      "ac": 138,
      "that": 139,
      "and": 140,
      "ig": 141,
      "ion": 142,
      "hat": 143,
      "ro": 144,
      "for": 145,
      "oo": 146,
      "You": 147,
      "ht": 148,
      "ha": 149,
      "do": 150,
      "ome": 151,
      "all": 152,
      "wi": 153,
      "ight": 154,
      "ld": 155,
      "ch": 156,
      "ke": 157,
      "ut": 158,
      "IN": 159,
      "im": 160,
      "...": 161,
      "ad": 162,
      "out": 163,
      "ab": 164,
      "here": 165,
      "now": 166,
      "we": 167,
      "We": 168,
      "one": 169,
      "nd": 170,
      "your": 171,
      "ag": 172,
      "li": 173,
      "up": 174,
      "ver": 175,
      "ur": 176,
      "ne": 177,
      "am": 178,
      "my": 179,
      "ust": 180,
      "not": 181,
      "The": 182,
      "ly": 183,
      "He": 184,
      "are": 185,
      "ck": 186,
      "ct": 187,
      "ir": 188,
      "this": 189,
      "na": 190,
      "wh": 191,
      "ING": 192,
      "get": 193,
      "pe": 194,
      "thing": 195,
      "have": 196,
      "un": 197,
      "with": 198,
      "lo": 199,
      "sh": 200,
      "om": 201,
      "ant": 202,
      "What": 203,
      "know": 204,
      "tr": 205,
      "was": 206,
      "ation": 207,
      "right": 208,
      "ther": 209,
      "ent": 210,
      "It": 211,
      "No": 212,
      "go": 213,
      "ook": 214,
      "us": 215,
      "got": 216,
      "if": 217,
      "no": 218,
      "te": 219,
      "ill": 220,
      "de": 221,
      "some": 222,
      "ould": 223,
      "ack": 224,
      "Th": 225,
      "mo": 226,
      "nt": 227,
      "kay": 228,
      "ul": 229,
      "uck": 230,
      "ate": 231,
      "ce": 232,
      "AN": 233,
      "can": 234,
      "ile": 235,
      "want": 236,
      "there": 237,
      "rom": 238,
      "ood": 239,
      "don": 240,
      "just": 241,
      "ri": 242,
      "our": 243,
      "ind": 244,
      "ah": 245,
      "him": 246,
      "pl": 247,
      "ta": 248,
      "ap": 249,
      "gon": 250,
      "ep": 251,
      "use": 252,
      "ist": 253,
      "art": 254,
      "All": 255,
      "ON": 256,
      "so": 257,
      "ink": 258,
      "ure": 259,
      "wor": 260,
      "what": 261,
      "gonna": 262,
      "fe": 263,
      "from": 264,
      "il": 265,
      "ive": 266,
      "ine": 267,
      "ard": 268,
      "will": 269,
      "about": 270,
      "And": 271,
      "TH": 272,
      "ain": 273,
      "com": 274,
      "way": 275,
      "OU": 276,
      "ge": 277,
      "sa": 278,
      "ter": 279,
      "xt": 280,
      "ick": 281,
      "bo": 282,
      "man": 283,
      "per": 284,
      "ple": 285,
      "Wh": 286,
      "ue": 287,
      "ound": 288,
      "In": 289,
      "by": 290,
      "con": 291,
      "di": 292,
      "day": 293,
      "fo": 294,
      "look": 295,
      "pro": 296,
      "ry": 297,
      "ide": 298,
      "Well": 299,
      "like": 300,
      "ase": 301,
      "but": 302,
      "eah": 303,
      "gu": 304,
      "ti": 305,
      "see": 306,
      "own": 307,
      "ES": 308,
      "Okay": 309,
      "ss": 310,
      "00": 311,
      "ER": 312,
      "gr": 313,
      "king": 314,
      "think": 315,
      "top": 316,
      "ort": 317,
      "able": 318,
      "Hey": 319,
      "This": 320,
      "That": 321,
      "ast": 322,
      "ber": 323,
      "did": 324,
      "pt": 325,
      "pre": 326,
      "ra": 327,
      "ice": 328,
      "ble": 329,
      "fa": 330,
      "good": 331,
      "ol": 332,
      "pr": 333,
      "pen": 334,
      "very": 335,
      "who": 336,
      "But": 337,
      "Oh": 338,
      "Yeah": 339,
      "ave": 340,
      "der": 341,
      "old": 342,
      "say": 343,
      "ong": 344,
      "LL": 345,
      "cl": 346,
      "fuck": 347,
      "iz": 348,
      "ser": 349,
      "ven": 350,
      "they": 351,
      "ace": 352,
      "ally": 353,
      "Come": 354,
      "ca": 355,
      "po": 356,
      "ug": 357,
      "um": 358,
      "any": 359,
      "ment": 360,
      "end": 361,
      "been": 362,
      "something": 363,
      "IS": 364,
      "Now": 365,
      "Re": 366,
      "ake": 367,
      "ie": 368,
      "kill": 369,
      "port": 370,
      "tle": 371,
      "ys": 372,
      "lect": 373,
      "ite": 374,
      "ess": 375,
      "age": 376,
      "time": 377,
      "AT": 378,
      "CH": 379,
      "CK": 380,
      "De": 381,
      "EA": 382,
      "How": 383,
      "So": 384,
      "ak": 385,
      "ex": 386,
      "ear": 387,
      "ob": 388,
      "put": 389,
      "she": 390,
      "ty": 391,
      "ang": 392,
      "off": 393,
      "doing": 394,
      "need": 395,
      "Ch": 396,
      "Do": 397,
      "SI": 398,
      "back": 399,
      "come": 400,
      "call": 401,
      "dy": 402,
      "down": 403,
      "okay": 404,
      "qu": 405,
      "ub": 406,
      "ach": 407,
      "act": 408,
      "when": 409,
      "Don": 410,
      "Go": 411,
      "Get": 412,
      "Not": 413,
      "Te": 414,
      "cre": 415,
      "file": 416,
      "tal": 417,
      "won": 418,
      "would": 419,
      "ank": 420,
      "ittle": 421,
      "name": 422,
      "GH": 423,
      "Let": 424,
      "OR": 425,
      "Un": 426,
      "ait": 427,
      "br": 428,
      "co": 429,
      "dis": 430,
      "el": 431,
      "ire": 432,
      "ies": 433,
      "little": 434,
      "min": 435,
      "wr": 436,
      "ers": 437,
      "then": 438,
      "ity": 439,
      "sel": 440,
      "oney": 441,
      "urn": 442,
      "should": 443,
      "An": 444,
      "Ex": 445,
      "IT": 446,
      "Just": 447,
      "LA": 448,
      "ME": 449,
      "Mo": 450,
      "Sh": 451,
      "YOU": 452,
      "bre": 453,
      "cur": 454,
      "dd": 455,
      "em": 456,
      "ect": 457,
      "his": 458,
      "hand": 459,
      "ian": 460,
      "sp": 461,
      "sup": 462,
      "let": 463,
      "set": 464,
      "ass": 465,
      "had": 466,
      "new": 467,
      "try": 468,
      "play": 469,
      "said": 470,
      "--": 471,
      "As": 472,
      "Look": 473,
      "WH": 474,
      "av": 475,
      "fir": 476,
      "night": 477,
      "sid": 478,
      "sure": 479,
      "ting": 480,
      "ull": 481,
      "were": 482,
      "ree": 483,
      "start": 484,
      "select": 485,
      "ica": 486,
      "ication": 487,
      "ions": 488,
      "form": 489,
      "take": 490,
      "work": 491,
      "Am": 492,
      "EN": 493,
      "GR": 494,
      "If": 495,
      "My": 496,
      "Ple": 497,
      "Se": 498,
      "St": 499,
      "TO": 500,
      "cle": 501,
      "her": 502,
      "has": 503,
      "ia": 504,
      "other": 505,
      "son": 506,
      "tw": 507,
      "vice": 508,
      "where": 509,
      "ous": 510,
      "int": 511,
      "ans": 512,
      "atch": 513,
      "tor": 514,
      "esk": 515,
      "going": 516,
      "used": 517,
      "body": 518,
      "fore": 519,
      "fucking": 520,
      "ize": 521,
      "Can": 522,
      "Ju": 523,
      "Mr": 524,
      "MAN": 525,
      "She": 526,
      "UCK": 527,
      "ame": 528,
      "ail": 529,
      "away": 530,
      "care": 531,
      "could": 532,
      "ff": 533,
      "find": 534,
      "ling": 535,
      "money": 536,
      "ror": 537,
      "run": 538,
      "uch": 539,
      "wal": 540,
      "oug": 541,
      "ance": 542,
      "them": 543,
      "mem": 544,
      "men": 545,
      "ise": 546,
      "iss": 547,
      "ary": 548,
      "ady": 549,
      "love": 550,
      "text": 551,
      "guy": 552,
      "type": 553,
      "wonder": 554,
      "Please": 555,
      "esktop": 556,
      "Did": 557,
      "Fuck": 558,
      "Jack": 559,
      "LES": 560,
      "NT": 561,
      "On": 562,
      "Tr": 563,
      "Where": 564,
      "au": 565,
      "aw": 566,
      "che": 567,
      "found": 568,
      "low": 569,
      "list": 570,
      "mad": 571,
      "over": 572,
      "sit": 573,
      "spe": 574,
      "into": 575,
      "ated": 576,
      "too": 577,
      "mean": 578,
      "leep": 579,
      "ord": 580,
      "ages": 581,
      "urt": 582,
      "ction": 583,
      "shit": 584,
      "more": 585,
      "didn": 586,
      "blem": 587,
      "cause": 588,
      "self": 589,
      "selected": 590,
      "50": 591,
      "AR": 592,
      "Are": 593,
      "BE": 594,
      "Con": 595,
      "DE": 596,
      "DO": 597,
      "Good": 598,
      "Here": 599,
      "Is": 600,
      "Pre": 601,
      "Pro": 602,
      "RI": 603,
      "There": 604,
      "Take": 605,
      "bit": 606,
      "bro": 607,
      "ey": 608,
      "fer": 609,
      "give": 610,
      "how": 611,
      "kid": 612,
      "kind": 613,
      "lp": 614,
      "mm": 615,
      "mar": 616,
      "much": 617,
      "ople": 618,
      "ph": 619,
      "que": 620,
      "ving": 621,
      "wait": 622,
      "year": 623,
      "real": 624,
      "really": 625,
      "today": 626,
      "leave": 627,
      "ence": 628,
      "sed": 629,
      "around": 630,
      "aybe": 631,
      "alway": 632,
      "before": 633,
      "hap": 634,
      "does": 635,
      "never": 636,
      "They": 637,
      "gotta": 638,
      "move": 639,
      "ult": 640,
      "ONE": 641,
      "fect": 642,
      "coming": 643,
      "Why": 644,
      "cont": 645,
      "problem": 646,
      "sident": 647,
      "always": 648,
      "Ar": 649,
      "Add": 650,
      "CO": 651,
      "CT": 652,
      "Com": 653,
      "Col": 654,
      "Dis": 655,
      "ET": 656,
      "Every": 657,
      "KE": 658,
      "Le": 659,
      "List": 660,
      "Ne": 661,
      "Open": 662,
      "PH": 663,
      "RING": 664,
      "UNT": 665,
      "VI": 666,
      "Whe": 667,
      "bab": 668,
      "bus": 669,
      "cr": 670,
      "cra": 671,
      "ds": 672,
      "dre": 673,
      "ever": 674,
      "fun": 675,
      "ful": 676,
      "ix": 677,
      "ild": 678,
      "ily": 679,
      "ious": 680,
      "job": 681,
      "lot": 682,
      "line": 683,
      "long": 684,
      "mag": 685,
      "make": 686,
      "ny": 687,
      "part": 688,
      "sor": 689,
      "sir": 690,
      "side": 691,
      "stop": 692,
      "ton": 693,
      "uh": 694,
      "und": 695,
      "uff": 696,
      "vis": 697,
      "zy": 698,
      "ouse": 699,
      "erica": 700,
      "only": 701,
      "rent": 702,
      "theme": 703,
      "str": 704,
      "hell": 705,
      "head": 706,
      "ool": 707,
      "well": 708,
      "unch": 709,
      "loc": 710,
      "sho": 711,
      "most": 712,
      "indow": 713,
      "plication": 714,
      "THE": 715,
      "Who": 716,
      "ERE": 717,
      "anything": 718,
      "Text": 719,
      "talk": 720,
      "formation": 721,
      "America": 722,
      "GRUNT": 723,
      "two": 724,
      "member": 725,
      "quest": 726,
      "years": 727,
      "ALL": 728,
      "Burt": 729,
      "DP": 730,
      "Desktop": 731,
      "KDE": 732,
      "LO": 733,
      "MU": 734,
      "One": 735,
      "Pl": 736,
      "PLA": 737,
      "Ro": 738,
      "SO": 739,
      "Sim": 740,
      "Wow": 741,
      "YING": 742,
      "bet": 743,
      "car": 744,
      "clo": 745,
      "cri": 746,
      "card": 747,
      "du": 748,
      "done": 749,
      "dri": 750,
      "ef": 751,
      "every": 752,
      "fl": 753,
      "fig": 754,
      "gre": 755,
      "ho": 756,
      "home": 757,
      "hard": 758,
      "ial": 759,
      "ken": 760,
      "last": 761,
      "mon": 762,
      "mand": 763,
      "ner": 764,
      "ose": 765,
      "row": 766,
      "anc": 767,
      "ange": 768,
      "ater": 769,
      "ating": 770,
      "their": 771,
      "ish": 772,
      "ors": 773,
      "eng": 774,
      "ense": 775,
      "stall": 776,
      "ved": 777,
      "ves": 778,
      "ask": 779,
      "rol": 780,
      "doc": 781,
      "keys": 782,
      "again": 783,
      "life": 784,
      "amn": 785,
      "why": 786,
      "gets": 787,
      "people": 788,
      "log": 789,
      "nothing": 790,
      "tell": 791,
      "application": 792,
      "ures": 793,
      "ption": 794,
      "click": 795,
      "iew": 796,
      "CHUCK": 797,
      "SIC": 798,
      "God": 799,
      "files": 800,
      "GHS": 801,
      "break": 802,
      "current": 803,
      "support": 804,
      "first": 805,
      "walk": 806,
      "ough": 807,
      "happen": 808,
      "PHONE": 809,
      "Whether": 810,
      "crazy": 811,
      "magic": 812,
      "DPI": 813,
      "MUSIC": 814,
      "12": 815,
      "72": 816,
      "80": 817,
      "Al": 818,
      "BR": 819,
      "Be": 820,
      "Bet": 821,
      "Bag": 822,
      "DV": 823,
      "ED": 824,
      "En": 825,
      "Eu": 826,
      "ELL": 827,
      "For": 828,
      "Har": 829,
      "IR": 830,
      "Jim": 831,
      "MB": 832,
      "Res": 833,
      "Right": 834,
      "SP": 835,
      "ST": 836,
      "Some": 837,
      "Ty": 838,
      "Up": 839,
      "Wait": 840,
      "\\\\": 841,
      "ax": 842,
      "abe": 843,
      "bl": 844,
      "bu": 845,
      "bar": 846,
      "bra": 847,
      "cess": 848,
      "dif": 849,
      "eg": 850,
      "ek": 851,
      "ele": 852,
      "even": 853,
      "full": 854,
      "gen": 855,
      "ip": 856,
      "ith": 857,
      "ied": 858,
      "ike": 859,
      "ject": 860,
      "lic": 861,
      "late": 862,
      "must": 863,
      "ning": 864,
      "oc": 865,
      "og": 866,
      "pack": 867,
      "rid": 868,
      "rist": 869,
      "sm": 870,
      "sy": 871,
      "sto": 872,
      "sch": 873,
      "sur": 874,
      "sleep": 875,
      "ts": 876,
      "tion": 877,
      "turn": 878,
      "val": 879,
      "window": 880,
      "inal": 881,
      "inter": 882,
      "ery": 883,
      "error": 884,
      "another": 885,
      "ready": 886,
      "remember": 887,
      "toge": 888,
      "stand": 889,
      "still": 890,
      "step": 891,
      "secon": 892,
      "aring": 893,
      "heard": 894,
      "because": 895,
      "acc": 896,
      "rope": 897,
      "chang": 898,
      "child": 899,
      "ute": 900,
      "lie": 901,
      "next": 902,
      "amily": 903,
      "irl": 904,
      "while": 905,
      "lost": 906,
      "show": 907,
      "Thank": 908,
      "mother": 909,
      "place": 910,
      "sol": 911,
      "feel": 912,
      "person": 913,
      "When": 914,
      "die": 915,
      "dith": 916,
      "guys": 917,
      "fault": 918,
      "whole": 919,
      "saying": 920,
      "umber": 921,
      "Christ": 922,
      "talking": 923,
      "wrong": 924,
      "space": 925,
      "trying": 926,
      "Asia": 927,
      "firm": 928,
      "clear": 929,
      "Judith": 930,
      "made": 931,
      "eyes": 932,
      "control": 933,
      "COME": 934,
      "under": 935,
      "PLAYING": 936,
      "figure": 937,
      "CHUCKLES": 938,
      "DVD": 939,
      "Europe": 940,
      "Type": 941,
      "together": 942,
      "'.": 943,
      "10": 944,
      "Br": 945,
      "CR": 946,
      "COU": 947,
      "DI": 948,
      "Er": 949,
      "FR": 950,
      "Fl": 951,
      "Hi": 952,
      "Have": 953,
      "Hang": 954,
      "Hmm": 955,
      "Jo": 956,
      "KING": 957,
      "LE": 958,
      "LING": 959,
      "Man": 960,
      "Or": 961,
      "Po": 962,
      "Sar": 963,
      "Sir": 964,
      "User": 965,
      "Won": 966,
      "With": 967,
      "Yes": 968,
      "af": 969,
      "ath": 970,
      "bor": 971,
      "ball": 972,
      "bir": 973,
      "bug": 974,
      "cit": 975,
      "cour": 976,
      "case": 977,
      "dr": 978,
      "dat": 979,
      "ding": 980,
      "des": 981,
      "det": 982,
      "date": 983,
      "est": 984,
      "ft": 985,
      "fri": 986,
      "fine": 987,
      "face": 988,
      "family": 989,
      "gun": 990,
      "girl": 991,
      "ik": 992,
      "ible": 993,
      "jo": 994,
      "knew": 995,
      "ms": 996,
      "mill": 997,
      "mind": 998,
      "mach": 999,
      "miss": 1000,
      "maybe": 1001,
      "pi": 1002,
      "py": 1003,
      "par": 1004,
      "pain": 1005,
      "uth": 1006,
      "ual": 1007,
      "vo": 1008,
      "vid": 1009,
      "view": 1010,
      "wn": 1011,
      "wan": 1012,
      "wom": 1013,
      "watch": 1014,
      "yeah": 1015,
      "thank": 1016,
      "three": 1017,
      "inside": 1018,
      "era": 1019,
      "atter": 1020,
      "tom": 1021,
      "told": 1022,
      "tory": 1023,
      "town": 1024,
      "these": 1025,
      "llow": 1026,
      "met": 1027,
      "led": 1028,
      "les": 1029,
      "lemen": 1030,
      "ste": 1031,
      "stay": 1032,
      "stone": 1033,
      "stem": 1034,
      "stuff": 1035,
      "sess": 1036,
      "help": 1037,
      "vel": 1038,
      "otect": 1039,
      "ich": 1040,
      "best": 1041,
      "belie": 1042,
      "forgot": 1043,
      "keep": 1044,
      "images": 1045,
      "week": 1046,
      "ager": 1047,
      "ama": 1048,
      "myself": 1049,
      "Hell": 1050,
      "getting": 1051,
      "known": 1052,
      "tra": 1053,
      "entlemen": 1054,
      "ification": 1055,
      "test": 1056,
      "del": 1057,
      "ulation": 1058,
      "AND": 1059,
      "iled": 1060,
      "iles": 1061,
      "wanted": 1062,
      "taking": 1063,
      "world": 1064,
      "comp": 1065,
      "comple": 1066,
      "peri": 1067,
      "please": 1068,
      "looking": 1069,
      "project": 1070,
      "grow": 1071,
      "ground": 1072,
      "press": 1073,
      "president": 1074,
      "protect": 1075,
      "derstone": 1076,
      "creen": 1077,
      "disc": 1078,
      "write": 1079,
      "Any": 1080,
      "ddamn": 1081,
      "suppo": 1082,
      "ailable": 1083,
      "spec": 1084,
      "broken": 1085,
      "Listen": 1086,
      "New": 1087,
      "sorry": 1088,
      "shoot": 1089,
      "effect": 1090,
      "system": 1091,
      "Sarah": 1092,
      "Wonderstone": 1093,
      "friend": 1094,
      "wanna": 1095,
      "woman": 1096,
      "\".": 1097,
      "'%": 1098,
      "180": 1099,
      "90": 1100,
      "AL": 1101,
      "Ac": 1102,
      "Af": 1103,
      "Ap": 1104,
      "Ant": 1105,
      "BA": 1106,
      "By": 1107,
      "BLO": 1108,
      "CD": 1109,
      "Co": 1110,
      "CELL": 1111,
      "Down": 1112,
      "Ext": 1113,
      "Even": 1114,
      "FUCK": 1115,
      "GU": 1116,
      "Gr": 1117,
      "Gen": 1118,
      "Game": 1119,
      "GET": 1120,
      "HA": 1121,
      "Hold": 1122,
      "HERE": 1123,
      "Ke": 1124,
      "Ko": 1125,
      "LY": 1126,
      "La": 1127,
      "Light": 1128,
      "Like": 1129,
      "MY": 1130,
      "Me": 1131,
      "Mer": 1132,
      "Mar": 1133,
      "Miss": 1134,
      "Maybe": 1135,
      "NA": 1136,
      "Nor": 1137,
      "OP": 1138,
      "Of": 1139,
      "RA": 1140,
      "SE": 1141,
      "Sc": 1142,
      "Ser": 1143,
      "Sto": 1144,
      "Set": 1145,
      "Ste": 1146,
      "Save": 1147,
      "Send": 1148,
      "Sub": 1149,
      "SCR": 1150,
      "Tit": 1151,
      "Tag": 1152,
      "Use": 1153,
      "Val": 1154,
      "WM": 1155,
      "Wall": 1156,
      "WAN": 1157,
      "Yo": 1158,
      "aut": 1159,
      "ather": 1160,
      "aking": 1161,
      "bs": 1162,
      "bed": 1163,
      "big": 1164,
      "bad": 1165,
      "bur": 1166,
      "buck": 1167,
      "bil": 1168,
      "burn": 1169,
      "bling": 1170,
      "ces": 1171,
      "cent": 1172,
      "cord": 1173,
      "dle": 1174,
      "dic": 1175,
      "desktop": 1176,
      "dpi": 1177,
      "each": 1178,
      "food": 1179,
      "five": 1180,
      "ger": 1181,
      "gan": 1182,
      "gam": 1183,
      "hit": 1184,
      "hold": 1185,
      "house": 1186,
      "kes": 1187,
      "kick": 1188,
      "later": 1189,
      "mer": 1190,
      "mas": 1191,
      "main": 1192,
      "number": 1193,
      "prom": 1194,
      "pap": 1195,
      "ran": 1196,
      "rica": 1197,
      "su": 1198,
      "sing": 1199,
      "slow": 1200,
      "sense": 1201,
      "tty": 1202,
      "ument": 1203,
      "vor": 1204,
      "vious": 1205,
      "wer": 1206,
      "went": 1207,
      "ward": 1208,
      "wide": 1209,
      "xy": 1210,
      "those": 1211,
      "throw": 1212,
      "outh": 1213,
      "ino": 1214,
      "iness": 1215,
      "information": 1216,
      "install": 1217,
      "eral": 1218,
      "att": 1219,
      "rel": 1220,
      "ren": 1221,
      "rest": 1222,
      "report": 1223,
      "remove": 1224,
      "med": 1225,
      "mess": 1226,
      "leg": 1227,
      "ley": 1228,
      "left": 1229,
      "itable": 1230,
      "state": 1231,
      "arch": 1232,
      "hed": 1233,
      "heart": 1234,
      "heera": 1235,
      "als": 1236,
      "alone": 1237,
      "alive": 1238,
      "ash": 1239,
      "ident": 1240,
      "idge": 1241,
      "being": 1242,
      "ign": 1243,
      "Your": 1244,
      "hall": 1245,
      "wife": 1246,
      "chance": 1247,
      "utes": 1248,
      "ades": 1249,
      "liz": 1250,
      "live": 1251,
      "things": 1252,
      "unk": 1253,
      "true": 1254,
      "truth": 1255,
      "wasn": 1256,
      "enter": 1257,
      "using": 1258,
      "ific": 1259,
      "nother": 1260,
      "someone": 1261,
      "Then": 1262,
      "cept": 1263,
      "ANS": 1264,
      "cannot": 1265,
      "wants": 1266,
      "tain": 1267,
      "few": 1268,
      "THING": 1269,
      "THERE": 1270,
      "command": 1271,
      "saw": 1272,
      "manager": 1273,
      "Information": 1274,
      "foot": 1275,
      "pretty": 1276,
      "father": 1277,
      "says": 1278,
      "sert": 1279,
      "posit": 1280,
      "ISO": 1281,
      "IST": 1282,
      "Device": 1283,
      "Default": 1284,
      "extra": 1285,
      "puter": 1286,
      "SIM": 1287,
      "SIGHS": 1288,
      "called": 1289,
      "Tell": 1290,
      "create": 1291,
      "GHT": 1292,
      "bring": 1293,
      "ired": 1294,
      "minutes": 1295,
      "Shit": 1296,
      "Show": 1297,
      "brea": 1298,
      "spades": 1299,
      "WHAT": 1300,
      "sider": 1301,
      "END": 1302,
      "Stre": 1303,
      "ought": 1304,
      "Only": 1305,
      "check": 1306,
      "Configure": 1307,
      "President": 1308,
      "Preview": 1309,
      "ferent": 1310,
      "mark": 1311,
      "Everything": 1312,
      "bably": 1313,
      "business": 1314,
      "funny": 1315,
      "vision": 1316,
      "GRUNTS": 1317,
      "GRUNTING": 1318,
      "Simon": 1319,
      "better": 1320,
      "cription": 1321,
      "driver": 1322,
      "supported": 1323,
      "happened": 1324,
      "Bagheera": 1325,
      "SPEA": 1326,
      "different": 1327,
      "package": 1328,
      "stole": 1329,
      "school": 1330,
      "Christmas": 1331,
      "Error": 1332,
      "course": 1333,
      "data": 1334,
      "guns": 1335,
      "machin": 1336,
      "session": 1337,
      "believe": 1338,
      "Hello": 1339,
      "complete": 1340,
      "specif": 1341,
      "Africa": 1342,
      "Merry": 1343,
      "Value": 1344,
      "bility": 1345,
      "\"%": 1346,
      "11": 1347,
      "15": 1348,
      "16": 1349,
      "200": 1350,
      "30": 1351,
      "49": 1352,
      "60": 1353,
      "Ah": 1354,
      "Av": 1355,
      "Ali": 1356,
      "Aust": 1357,
      "Act": 1358,
      "Another": 1359,
      "BO": 1360,
      "Bl": 1361,
      "Bo": 1362,
      "Boo": 1363,
      "Bill": 1364,
      "Back": 1365,
      "Bra": 1366,
      "Babe": 1367,
      "CA": 1368,
      "Ca": 1369,
      "Cre": 1370,
      "Che": 1371,
      "Cha": 1372,
      "Center": 1373,
      "Det": 1374,
      "Dav": 1375,
      "EP": 1376,
      "Ed": 1377,
      "Ear": 1378,
      "Eliz": 1379,
      "FF": 1380,
      "File": 1381,
      "From": 1382,
      "Four": 1383,
      "Fire": 1384,
      "Free": 1385,
      "Give": 1386,
      "HE": 1387,
      "Ha": 1388,
      "Ho": 1389,
      "Hen": 1390,
      "HEA": 1391,
      "IM": 1392,
      "Jay": 1393,
      "Kon": 1394,
      "LD": 1395,
      "Lo": 1396,
      "Lu": 1397,
      "Lou": 1398,
      "Lad": 1399,
      "Last": 1400,
      "Mi": 1401,
      "Men": 1402,
      "MIN": 1403,
      "Mess": 1404,
      "NO": 1405,
      "OK": 1406,
      "Old": 1407,
      "Opt": 1408,
      "OANS": 1409,
      "OFF": 1410,
      "PA": 1411,
      "Pr": 1412,
      "Pal": 1413,
      "Pac": 1414,
      "Ren": 1415,
      "Rus": 1416,
      "Rep": 1417,
      "Riz": 1418,
      "Sp": 1419,
      "Sor": 1420,
      "Swe": 1421,
      "Sna": 1422,
      "Spe": 1423,
      "Stop": 1424,
      "Spr": 1425,
      "Sear": 1426,
      "Sleep": 1427,
      "Screen": 1428,
      "South": 1429,
      "Tet": 1430,
      "TING": 1431,
      "TER": 1432,
      "UST": 1433,
      "Veg": 1434,
      "Vik": 1435,
      "WE": 1436,
      "Watch": 1437,
      "aug": 1438,
      "bout": 1439,
      "base": 1440,
      "bull": 1441,
      "ci": 1442,
      "cy": 1443,
      "cook": 1444,
      "cap": 1445,
      "cuse": 1446,
      "col": 1447,
      "den": 1448,
      "dig": 1449,
      "dro": 1450,
      "due": 1451,
      "eas": 1452,
      "fin": 1453,
      "fre": 1454,
      "fight": 1455,
      "flo": 1456,
      "four": 1457,
      "fix": 1458,
      "gone": 1459,
      "gentlemen": 1460,
      "hu": 1461,
      "hon": 1462,
      "han": 1463,
      "hor": 1464,
      "hal": 1465,
      "hour": 1466,
      "hind": 1467,
      "hum": 1468,
      "hurt": 1469,
      "huh": 1470,
      "ibility": 1471,
      "land": 1472,
      "lick": 1473,
      "lcome": 1474,
      "law": 1475,
      "ldoc": 1476,
      "ml": 1477,
      "mome": 1478,
      "might": 1479,
      "mport": 1480,
      "match": 1481,
      "making": 1482,
      "open": 1483,
      "option": 1484,
      "ps": 1485,
      "ping": 1486,
      "pay": 1487,
      "pad": 1488,
      "pri": 1489,
      "past": 1490,
      "pol": 1491,
      "pass": 1492,
      "ris": 1493,
      "ral": 1494,
      "ric": 1495,
      "round": 1496,
      "sou": 1497,
      "sin": 1498,
      "sof": 1499,
      "sim": 1500,
      "sun": 1501,
      "sent": 1502,
      "size": 1503,
      "scare": 1504,
      "sche": 1505,
      "ssed": 1506,
      "uation": 1507,
      "ually": 1508,
      "vi": 1509,
      "vic": 1510,
      "vide": 1511,
      "wid": 1512,
      "yle": 1513,
      "yes": 1514,
      "zing": 1515,
      "thday": 1516,
      "thought": 1517,
      "ina": 1518,
      "ero": 1519,
      "eror": 1520,
      "ermin": 1521,
      "ont": 1522,
      "once": 1523,
      "ane": 1524,
      "ats": 1525,
      "ator": 1526,
      "red": 1527,
      "request": 1528,
      "return": 1529,
      "tore": 1530,
      "lle": 1531,
      "isn": 1532,
      "lear": 1533,
      "lead": 1534,
      "lete": 1535,
      "least": 1536,
      "ories": 1537,
      "ited": 1538,
      "itary": 1539,
      "ene": 1540,
      "sted": 1541,
      "stro": 1542,
      "station": 1543,
      "stri": 1544,
      "sex": 1545,
      "sey": 1546,
      "sell": 1547,
      "search": 1548,
      "arm": 1549,
      "arr": 1550,
      "ars": 1551,
      "hear": 1552,
      "almon": 1553,
      "alog": 1554,
      "icy": 1555,
      "icon": 1556,
      "etic": 1557,
      "etch": 1558,
      "beaut": 1559,
      "behind": 1560,
      "acing": 1561,
      "actor": 1562,
      "igh": 1563,
      "iger": 1564,
      "hate": 1565,
      "roll": 1566,
      "road": 1567,
      "forward": 1568,
      "oose": 1569,
      "haven": 1570,
      "having": 1571,
      "cho": 1572,
      "change": 1573,
      "key": 1574,
      "IND": 1575,
      "imal": 1576,
      "image": 1577,
      "ads": 1578,
      "absol": 1579,
      "ween": 1580,
      "wearing": 1581,
      "Welcome": 1582,
      "yourself": 1583,
      "ago": 1584,
      "lia": 1585,
      "likes": 1586,
      "near": 1587,
      "ams": 1588,
      "aming": 1589,
      "Help": 1590,
      "irt": 1591,
      "white": 1592,
      "which": 1593,
      "pect": 1594,
      "ung": 1595,
      "unt": 1596,
      "without": 1597,
      "lose": 1598,
      "load": 1599,
      "shot": 1600,
      "knows": 1601,
      "trust": 1602,
      "train": 1603,
      "trick": 1604,
      "trave": 1605,
      "goddamn": 1606,
      "usic": 1607,
      "iful": 1608,
      "tem": 1609,
      "tech": 1610,
      "dead": 1611,
      "mode": 1612,
      "ulti": 1613,
      "ried": 1614,
      "plug": 1615,
      "aph": 1616,
      "appe": 1617,
      "word": 1618,
      "worth": 1619,
      "words": 1620,
      "ilitary": 1621,
      "THAT": 1622,
      "THEN": 1623,
      "computer": 1624,
      "OUR": 1625,
      "same": 1626,
      "ickly": 1627,
      "boy": 1628,
      "board": 1629,
      "Install": 1630,
      "Insert": 1631,
      "dire": 1632,
      "days": 1633,
      "follow": 1634,
      "foldoc": 1635,
      "looks": 1636,
      "idea": 1637,
      "guess": 1638,
      "grab": 1639,
      "thinking": 1640,
      "astian": 1641,
      "failed": 1642,
      "favor": 1643,
      "pray": 1644,
      "prise": 1645,
      "printer": 1646,
      "club": 1647,
      "server": 1648,
      "serious": 1649,
      "pos": 1650,
      "ugge": 1651,
      "Recent": 1652,
      "killing": 1653,
      "killed": 1654,
      "times": 1655,
      "akes": 1656,
      "quit": 1657,
      "queror": 1658,
      "Unable": 1659,
      "bridge": 1660,
      "cop": 1661,
      "cover": 1662,
      "irection": 1663,
      "writable": 1664,
      "selves": 1665,
      "LAU": 1666,
      "Move": 1667,
      "Mode": 1668,
      "YOUR": 1669,
      "cursor": 1670,
      "hands": 1671,
      "handle": 1672,
      "Ask": 1673,
      "starting": 1674,
      "GROANS": 1675,
      "Select": 1676,
      "clean": 1677,
      "tware": 1678,
      "ints": 1679,
      "intere": 1680,
      "anslate": 1681,
      "torm": 1682,
      "Julia": 1683,
      "running": 1684,
      "memories": 1685,
      "loves": 1686,
      "textures": 1687,
      "wondering": 1688,
      "Translate": 1689,
      "audi": 1690,
      "listen": 1691,
      "BELL": 1692,
      "DOOR": 1693,
      "kids": 1694,
      "CTOR": 1695,
      "Color": 1696,
      "Disable": 1697,
      "Everybody": 1698,
      "RINGS": 1699,
      "RINGING": 1700,
      "VICTOR": 1701,
      "baby": 1702,
      "busy": 1703,
      "partner": 1704,
      "local": 1705,
      "location": 1706,
      "question": 1707,
      "Play": 1708,
      "close": 1709,
      "cript": 1710,
      "great": 1711,
      "engine": 1712,
      "login": 1713,
      "clicks": 1714,
      "1200": 1715,
      "720": 1716,
      "Harley": 1717,
      "Jimmy": 1718,
      "Restore": 1719,
      "abeth": 1720,
      "fully": 1721,
      "surprise": 1722,
      "second": 1723,
      "seconds": 1724,
      "accident": 1725,
      "changes": 1726,
      "children": 1727,
      "utely": 1728,
      "Thanks": 1729,
      "understand": 1730,
      "FRAN": 1731,
      "border": 1732,
      "birthday": 1733,
      "million": 1734,
      "watching": 1735,
      "perience": 1736,
      "growl": 1737,
      "supposed": 1738,
      "friends": 1739,
      "Anton": 1740,
      "FUCKING": 1741,
      "Keep": 1742,
      "Kore": 1743,
      "North": 1744,
      "Scroll": 1745,
      "Service": 1746,
      "Title": 1747,
      "burning": 1748,
      "diction": 1749,
      "gambling": 1750,
      "promise": 1751,
      "paper": 1752,
      "position": 1753,
      "SIMON": 1754,
      "breathing": 1755,
      "Street": 1756,
      "SPEAKING": 1757,
      "machinery": 1758,
      "specified": 1759,
      "Austral": 1760,
      "Black": 1761,
      "Cause": 1762,
      "Create": 1763,
      "Davide": 1764,
      "Elizabeth": 1765,
      "Henry": 1766,
      "Jaye": 1767,
      "Konqueror": 1768,
      "Ladies": 1769,
      "MiB": 1770,
      "Pacific": 1771,
      "Russ": 1772,
      "Snake": 1773,
      "Spring": 1774,
      "Search": 1775,
      "Vegas": 1776,
      "Vika": 1777,
      "half": 1778,
      "hours": 1779,
      "lawy": 1780,
      "moment": 1781,
      "risk": 1782,
      "software": 1783,
      "strike": 1784,
      "beautiful": 1785,
      "absolutely": 1786,
      "tricks": 1787,
      "following": 1788,
      "Australia": 1789,
      "\"?": 1790,
      "',": 1791,
      "'?": 1792,
      "14": 1793,
      "100": 1794,
      "24": 1795,
      "300": 1796,
      "45": 1797,
      "47": 1798,
      "600": 1799,
      "747": 1800,
      "88": 1801,
      "800": 1802,
      "==": 1803,
      "=\\\\": 1804,
      "@}": 1805,
      "AD": 1806,
      "At": 1807,
      "Au": 1808,
      "Ass": 1809,
      "ALA": 1810,
      "Awal": 1811,
      "About": 1812,
      "B5": 1813,
      "BB": 1814,
      "BU": 1815,
      "Bre": 1816,
      "Bar": 1817,
      "Bal": 1818,
      "Bus": 1819,
      "Bel": 1820,
      "Burn": 1821,
      "CJ": 1822,
      "Chat": 1823,
      "Cur": 1824,
      "Ctr": 1825,
      "Could": 1826,
      "CON": 1827,
      "CAR": 1828,
      "Click": 1829,
      "DM": 1830,
      "DU": 1831,
      "Dre": 1832,
      "Des": 1833,
      "DON": 1834,
      "EE": 1835,
      "EH": 1836,
      "EV": 1837,
      "EY": 1838,
      "Ell": 1839,
      "End": 1840,
      "ELE": 1841,
      "Eyes": 1842,
      "FL": 1843,
      "Fa": 1844,
      "Fo": 1845,
      "Far": 1846,
      "Fine": 1847,
      "Fold": 1848,
      "Full": 1849,
      "FRI": 1850,
      "Frid": 1851,
      "GA": 1852,
      "GL": 1853,
      "GN": 1854,
      "GO": 1855,
      "Gre": 1856,
      "Gur": 1857,
      "GOR": 1858,
      "Gree": 1859,
      "Gentlemen": 1860,
      "HI": 1861,
      "HT": 1862,
      "Hon": 1863,
      "His": 1864,
      "Hor": 1865,
      "Had": 1866,
      "HAN": 1867,
      "Hap": 1868,
      "IZ": 1869,
      "Ind": 1870,
      "Int": 1871,
      "ITH": 1872,
      "ILL": 1873,
      "Import": 1874,
      "JA": 1875,
      "Jer": 1876,
      "Jam": 1877,
      "Jav": 1878,
      "JUST": 1879,
      "Kill": 1880,
      "Key": 1881,
      "KDM": 1882,
      "Lis": 1883,
      "Low": 1884,
      "LON": 1885,
      "Link": 1886,
      "LOU": 1887,
      "LAT": 1888,
      "Lady": 1889,
      "Lord": 1890,
      "Leng": 1891,
      "MS": 1892,
      "Min": 1893,
      "Mor": 1894,
      "Mal": 1895,
      "Mom": 1896,
      "Mmm": 1897,
      "Mult": 1898,
      "Mike": 1899,
      "Mama": 1900,
      "Non": 1901,
      "Net": 1902,
      "None": 1903,
      "NAT": 1904,
      "Nanc": 1905,
      "Number": 1906,
      "Niles": 1907,
      "OT": 1908,
      "Out": 1909,
      "Over": 1910,
      "Our": 1911,
      "Other": 1912,
      "OMAN": 1913,
      "Oxy": 1914,
      "Pe": 1915,
      "Pap": 1916,
      "PER": 1917,
      "Pass": 1918,
      "RE": 1919,
      "RO": 1920,
      "RY": 1921,
      "Ra": 1922,
      "Ru": 1923,
      "Ric": 1924,
      "SH": 1925,
      "SV": 1926,
      "Sup": 1927,
      "SING": 1928,
      "Sour": 1929,
      "Sep": 1930,
      "Sure": 1931,
      "Sil": 1932,
      "Sold": 1933,
      "STO": 1934,
      "Size": 1935,
      "Slow": 1936,
      "Storm": 1937,
      "Script": 1938,
      "Ti": 1939,
      "Ton": 1940,
      "Too": 1941,
      "TIN": 1942,
      "TON": 1943,
      "TES": 1944,
      "Turn": 1945,
      "Tool": 1946,
      "TED": 1947,
      "Tiger": 1948,
      "UP": 1949,
      "Uh": 1950,
      "Um": 1951,
      "UES": 1952,
      "URI": 1953,
      "Used": 1954,
      "UMB": 1955,
      "VE": 1956,
      "Vic": 1957,
      "View": 1958,
      "Very": 1959,
      "Virt": 1960,
      "Wor": 1961,
      "War": 1962,
      "Wal": 1963,
      "Will": 1964,
      "Window": 1965,
      "WIND": 1966,
      "WITH": 1967,
      "WOMAN": 1968,
      "Yor": 1969,
      "YELL": 1970,
      "ZZ": 1971,
      "Zero": 1972,
      "ai": 1973,
      "aver": 1974,
      "bt": 1975,
      "bin": 1976,
      "bon": 1977,
      "bat": 1978,
      "bot": 1979,
      "bes": 1980,
      "bas": 1981,
      "book": 1982,
      "bill": 1983,
      "bul": 1984,
      "bri": 1985,
      "bastian": 1986,
      "cou": 1987,
      "cer": 1988,
      "ced": 1989,
      "cam": 1990,
      "cus": 1991,
      "city": 1992,
      "ccess": 1993,
      "ctory": 1994,
      "dup": 1995,
      "dah": 1996,
      "dance": 1997,
      "danc": 1998,
      "ec": 1999,
      "eth": 2000,
      "evid": 2001,
      "fing": 2002,
      "fit": 2003,
      "fab": 2004,
      "fly": 2005,
      "fact": 2006,
      "fire": 2007,
      "fused": 2008,
      "final": 2009,
      "fetch": 2010,
      "gg": 2011,
      "gi": 2012,
      "gy": 2013,
      "gor": 2014,
      "gay": 2015,
      "gus": 2016,
      "game": 2017,
      "hot": 2018,
      "hur": 2019,
      "hom": 2020,
      "honey": 2021,
      "hmm": 2022,
      "hired": 2023,
      "io": 2024,
      "iv": 2025,
      "ither": 2026,
      "itory": 2027,
      "jung": 2028,
      "ker": 2029,
      "ked": 2030,
      "ls": 2031,
      "lt": 2032,
      "lay": 2033,
      "lim": 2034,
      "lam": 2035,
      "luck": 2036,
      "laug": 2037,
      "ming": 2038,
      "mis": 2039,
      "mor": 2040,
      "may": 2041,
      "mut": 2042,
      "mbo": 2043,
      "mouse": 2044,
      "max": 2045,
      "matter": 2046,
      "miles": 2047,
      "music": 2048,
      "multi": 2049,
      "military": 2050,
      "nu": 2051,
      "non": 2052,
      "nit": 2053,
      "nal": 2054,
      "nif": 2055,
      "nine": 2056,
      "nice": 2057,
      "ness": 2058,
      "pow": 2059,
      "ped": 2060,
      "pur": 2061,
      "plo": 2062,
      "pant": 2063,
      "pill": 2064,
      "pick": 2065,
      "punch": 2066,
      "ru": 2067,
      "rad": 2068,
      "rub": 2069,
      "sc": 2070,
      "sk": 2071,
      "sen": 2072,
      "sion": 2073,
      "snow": 2074,
      "sist": 2075,
      "song": 2076,
      "sie": 2077,
      "squ": 2078,
      "six": 2079,
      "screen": 2080,
      "salmon": 2081,
      "sugge": 2082,
      "tp": 2083,
      "tz": 2084,
      "tre": 2085,
      "ture": 2086,
      "tick": 2087,
      "task": 2088,
      "uk": 2089,
      "uv": 2090,
      "une": 2091,
      "vac": 2092,
      "vir": 2093,
      "vent": 2094,
      "vul": 2095,
      "ww": 2096,
      "wit": 2097,
      "wall": 2098,
      "wood": 2099,
      "water": 2100,
      "wish": 2101,
      "xic": 2102,
      "ya": 2103,
      "yn": 2104,
      "yp": 2105,
      "ying": 2106,
      "yed": 2107,
      "zone": 2108,
      "{@}": 2109,
      "üg": 2110,
      "than": 2111,
      "though": 2112,
      "oud": 2113,
      "ount": 2114,
      "ouble": 2115,
      "ini": 2116,
      "ined": 2117,
      "inch": 2118,
      "instr": 2119,
      "ern": 2120,
      "ons": 2121,
      "onment": 2122,
      "ontal": 2123,
      "atic": 2124,
      "ates": 2125,
      "atibility": 2126,
      "reg": 2127,
      "reme": 2128,
      "read": 2129,
      "repe": 2130,
      "rece": 2131,
      "repl": 2132,
      "reach": 2133,
      "replace": 2134,
      "record": 2135,
      "repos": 2136,
      "refused": 2137,
      "tol": 2138,
      "tool": 2139,
      "lls": 2140,
      "means": 2141,
      "isin": 2142,
      "ison": 2143,
      "ised": 2144,
      "istol": 2145,
      "less": 2146,
      "level": 2147,
      "ita": 2148,
      "itar": 2149,
      "itim": 2150,
      "itran": 2151,
      "entry": 2152,
      "enough": 2153,
      "ences": 2154,
      "sting": 2155,
      "stup": 2156,
      "stuck": 2157,
      "stra": 2158,
      "stage": 2159,
      "style": 2160,
      "sec": 2161,
      "ses": 2162,
      "seat": 2163,
      "seen": 2164,
      "section": 2165,
      "ows": 2166,
      "ari": 2167,
      "arac": 2168,
      "arms": 2169,
      "heh": 2170,
      "height": 2171,
      "ote": 2172,
      "ots": 2173,
      "alm": 2174,
      "also": 2175,
      "almost": 2176,
      "already": 2177,
      "icul": 2178,
      "esy": 2179,
      "asp": 2180,
      "ason": 2181,
      "asing": 2182,
      "asset": 2183,
      "ashed": 2184,
      "etc": 2185,
      "ides": 2186,
      "iddle": 2187,
      "idirection": 2188,
      "bear": 2189,
      "beha": 2190,
      "belong": 2191,
      "belt": 2192,
      "acid": 2193,
      "acti": 2194,
      "iginal": 2195,
      "fort": 2196,
      "forget": 2197,
      "formed": 2198,
      "ooling": 2199,
      "html": 2200,
      "http": 2201,
      "allow": 2202,
      "ldwide": 2203,
      "chick": 2204,
      "chasing": 2205,
      "uts": 2206,
      "INE": 2207,
      "INT": 2208,
      "imiz": 2209,
      "iminal": 2210,
      "addy": 2211,
      "advice": 2212,
      "addre": 2213,
      "outfit": 2214,
      "weap": 2215,
      "nda": 2216,
      "agr": 2217,
      "agon": 2218,
      "aged": 2219,
      "lier": 2220,
      "lient": 2221,
      "living": 2222,
      "urder": 2223,
      "amate": 2224,
      "ambo": 2225,
      "ample": 2226,
      "notification": 2227,
      "These": 2228,
      "ared": 2229,
      "cket": 2230,
      "ird": 2231,
      "peace": 2232,
      "unknown": 2233,
      "short": 2234,
      "ship": 2235,
      "anted": 2236,
      "Whatever": 2237,
      "trunk": 2238,
      "ations": 2239,
      "goes": 2240,
      "ooks": 2241,
      "user": 2242,
      "iff": 2243,
      "team": 2244,
      "illeg": 2245,
      "device": 2246,
      "default": 2247,
      "death": 2248,
      "debug": 2249,
      "destro": 2250,
      "ouldn": 2251,
      "Three": 2252,
      "Those": 2253,
      "moving": 2254,
      "ANI": 2255,
      "ANTON": 2256,
      "ourselves": 2257,
      "plan": 2258,
      "tast": 2259,
      "taken": 2260,
      "appro": 2261,
      "gones": 2262,
      "ister": 2263,
      "Allow": 2264,
      "worse": 2265,
      "worry": 2266,
      "working": 2267,
      "ains": 2268,
      "safe": 2269,
      "sail": 2270,
      "ters": 2271,
      "boys": 2272,
      "many": 2273,
      "pering": 2274,
      "perform": 2275,
      "perfect": 2276,
      "plement": 2277,
      "While": 2278,
      "White": 2279,
      "bygones": 2280,
      "confirm": 2281,
      "configure": 2282,
      "consider": 2283,
      "dialog": 2284,
      "fox": 2285,
      "progr": 2286,
      "produ": 2287,
      "provid": 2288,
      "probably": 2289,
      "button": 2290,
      "guitar": 2291,
      "seek": 2292,
      "seeing": 2293,
      "ssible": 2294,
      "000": 2295,
      "grand": 2296,
      "pty": 2297,
      "pted": 2298,
      "previous": 2299,
      "fair": 2300,
      "proud": 2301,
      "prison": 2302,
      "whoa": 2303,
      "clou": 2304,
      "class": 2305,
      "fucker": 2306,
      "ization": 2307,
      "izontal": 2308,
      "venir": 2309,
      "came": 2310,
      "cape": 2311,
      "caug": 2312,
      "possible": 2313,
      "umn": 2314,
      "anywhere": 2315,
      "ended": 2316,
      "ISH": 2317,
      "ISPER": 2318,
      "Rem": 2319,
      "Reset": 2320,
      "Ready": 2321,
      "ief": 2322,
      "item": 2323,
      "ATES": 2324,
      "ATOR": 2325,
      "CHING": 2326,
      "CHIM": 2327,
      "Delete": 2328,
      "EAR": 2329,
      "EATHING": 2330,
      "excit": 2331,
      "early": 2332,
      "earlier": 2333,
      "obser": 2334,
      "obooks": 2335,
      "sheep": 2336,
      "anger": 2337,
      "angle": 2338,
      "offline": 2339,
      "Change": 2340,
      "backs": 2341,
      "background": 2342,
      "comes": 2343,
      "quired": 2344,
      "quickly": 2345,
      "acting": 2346,
      "action": 2347,
      "active": 2348,
      "actually": 2349,
      "Goddamn": 2350,
      "Test": 2351,
      "cret": 2352,
      "cream": 2353,
      "GHING": 2354,
      "Uncle": 2355,
      "Unknown": 2356,
      "Unidirection": 2357,
      "brary": 2358,
      "core": 2359,
      "colle": 2360,
      "display": 2361,
      "disappe": 2362,
      "else": 2363,
      "minute": 2364,
      "Angus": 2365,
      "Export": 2366,
      "Except": 2367,
      "Excuse": 2368,
      "Experience": 2369,
      "More": 2370,
      "Mother": 2371,
      "handled": 2372,
      "ians": 2373,
      "playing": 2374,
      "played": 2375,
      "playlist": 2376,
      "WHY": 2377,
      "WHIST": 2378,
      "WHISPER": 2379,
      "available": 2380,
      "tings": 2381,
      "started": 2382,
      "works": 2383,
      "worked": 2384,
      "Ama": 2385,
      "Amber": 2386,
      "Sean": 2387,
      "Sebastian": 2388,
      "Secret": 2389,
      "answer": 2390,
      "Judah": 2391,
      "ails": 2392,
      "careful": 2393,
      "couldn": 2394,
      "walking": 2395,
      "loved": 2396,
      "wonderful": 2397,
      "Trüg": 2398,
      "auction": 2399,
      "spell": 2400,
      "speak": 2401,
      "took": 2402,
      "ARD": 2403,
      "ART": 2404,
      "Confirm": 2405,
      "Probably": 2406,
      "RIC": 2407,
      "RIGHT": 2408,
      "bitch": 2409,
      "broke": 2410,
      "ferences": 2411,
      "kidding": 2412,
      "married": 2413,
      "phan": 2414,
      "phone": 2415,
      "phant": 2416,
      "doesn": 2417,
      "Arm": 2418,
      "Arbuck": 2419,
      "Added": 2420,
      "CTRIC": 2421,
      "Command": 2422,
      "Combs": 2423,
      "Colton": 2424,
      "Colors": 2425,
      "Display": 2426,
      "KEEP": 2427,
      "Level": 2428,
      "VIBR": 2429,
      "VILY": 2430,
      "crashed": 2431,
      "criminal": 2432,
      "ilding": 2433,
      "stops": 2434,
      "strong": 2435,
      "strange": 2436,
      "heading": 2437,
      "Whoa": 2438,
      "Texts": 2439,
      "talked": 2440,
      "questions": 2441,
      "Rock": 2442,
      "Rosie": 2443,
      "SOBB": 2444,
      "Simulation": 2445,
      "clock": 2446,
      "cards": 2447,
      "dule": 2448,
      "everybody": 2449,
      "holes": 2450,
      "month": 2451,
      "nerable": 2452,
      "vedere": 2453,
      "document": 2454,
      "telling": 2455,
      "clicking": 2456,
      "walked": 2457,
      "Alt": 2458,
      "BREATHING": 2459,
      "Because": 2460,
      "Better": 2461,
      "Betty": 2462,
      "Between": 2463,
      "Envir": 2464,
      "Harry": 2465,
      "Somebody": 2466,
      "Upd": 2467,
      "\\\\{@}": 2468,
      "bud": 2469,
      "buy": 2470,
      "cessible": 2471,
      "element": 2472,
      "elephant": 2473,
      "riding": 2474,
      "small": 2475,
      "smart": 2476,
      "store": 2477,
      "schooling": 2478,
      "internal": 2479,
      "changed": 2480,
      "motherfucking": 2481,
      "motherfucker": 2482,
      "Christian": 2483,
      "COUGHS": 2484,
      "Flint": 2485,
      "Hangul": 2486,
      "Joes": 2487,
      "Organ": 2488,
      "Pop": 2489,
      "Username": 2490,
      "affect": 2491,
      "cital": 2492,
      "drink": 2493,
      "description": 2494,
      "determin": 2495,
      "millions": 2496,
      "mission": 2497,
      "thanks": 2498,
      "weeks": 2499,
      "tests": 2500,
      "delay": 2501,
      "growling": 2502,
      "protecting": 2503,
      "Anyone": 2504,
      "suppose": 2505,
      "180x": 2506,
      "Accessible": 2507,
      "BLOCK": 2508,
      "Code": 2509,
      "Extended": 2510,
      "GUN": 2511,
      "General": 2512,
      "Launch": 2513,
      "Marwood": 2514,
      "Stock": 2515,
      "Steve": 2516,
      "Stephan": 2517,
      "Subtype": 2518,
      "SCREA": 2519,
      "SCREE": 2520,
      "WANNA": 2521,
      "WANTED": 2522,
      "kicked": 2523,
      "success": 2524,
      "single": 2525,
      "viously": 2526,
      "installed": 2527,
      "relax": 2528,
      "message": 2529,
      "messages": 2530,
      "statement": 2531,
      "hearts": 2532,
      "Teller": 2533,
      "completely": 2534,
      "Available": 2535,
      "Alien": 2536,
      "BOTH": 2537,
      "Boom": 2538,
      "Billy": 2539,
      "Bravo": 2540,
      "Check": 2541,
      "Detect": 2542,
      "Edit": 2543,
      "Earl": 2544,
      "Firefox": 2545,
      "Host": 2546,
      "HEAVILY": 2547,
      "Louis": 2548,
      "NOW": 2549,
      "Options": 2550,
      "Print": 2551,
      "Report": 2552,
      "Spacing": 2553,
      "Sorbon": 2554,
      "Speak": 2555,
      "based": 2556,
      "bullshit": 2557,
      "capture": 2558,
      "drop": 2559,
      "easy": 2560,
      "fresh": 2561,
      "floor": 2562,
      "humming": 2563,
      "paddle": 2564,
      "policy": 2565,
      "souvenir": 2566,
      "sunny": 2567,
      "scared": 2568,
      "video": 2569,
      "requested": 2570,
      "learn": 2571,
      "enemy": 2572,
      "pected": 2573,
      "until": 2574,
      "training": 2575,
      "travel": 2576,
      "plugin": 2577,
      "directory": 2578,
      "favorite": 2579,
      "clubs": 2580,
      "Disabled": 2581,
      "1200x": 2582,
      "FRANCK": 2583,
      "Scrollback": 2584,
      "Titlebar": 2585,
      "dictionary": 2586,
      "Russian": 2587,
      "Searching": 2588,
      "lawyer": 2589,
      "7477": 2590,
      "=\\\\\\\\{@}": 2591,
      "Brenda": 2592,
      "Baloo": 2593,
      "Belvedere": 2594,
      "CJK": 2595,
      "Ctrl": 2596,
      "CONTIN": 2597,
      "DUKE": 2598,
      "Description": 2599,
      "Ellen": 2600,
      "ELECTRIC": 2601,
      "FLINT": 2602,
      "Follow": 2603,
      "Folder": 2604,
      "FRIEND": 2605,
      "Friday": 2606,
      "Greely": 2607,
      "HANK": 2608,
      "Happy": 2609,
      "Jersey": 2610,
      "Jamo": 2611,
      "LOUD": 2612,
      "Length": 2613,
      "Multitran": 2614,
      "Network": 2615,
      "NATE": 2616,
      "Nancy": 2617,
      "Oxygen": 2618,
      "People": 2619,
      "SVN": 2620,
      "SINGING": 2621,
      "Source": 2622,
      "Silas": 2623,
      "STOP": 2624,
      "Time": 2625,
      "Tonight": 2626,
      "Victor": 2627,
      "Virtual": 2628,
      "Worldwide": 2629,
      "York": 2630,
      "battle": 2631,
      "besides": 2632,
      "basic": 2633,
      "brief": 2634,
      "coun": 2635,
      "duplic": 2636,
      "dancing": 2637,
      "evidence": 2638,
      "finger": 2639,
      "fabric": 2640,
      "jungle": 2641,
      "maxim": 2642,
      "multiple": 2643,
      "nuclear": 2644,
      "radio": 2645,
      "suggest": 2646,
      "tickling": 2647,
      "vulnerable": 2648,
      "remely": 2649,
      "receive": 2650,
      "repository": 2651,
      "itimate": 2652,
      "straight": 2653,
      "behavi": 2654,
      "activ": 2655,
      "amateur": 2656,
      "amples": 2657,
      "illegitimate": 2658,
      "caught": 2659,
      "CHIMES": 2660,
      "Unidirectional": 2661,
      "college": 2662,
      "WHISPERS": 2663,
      "Arbuckle": 2664,
      "Commander": 2665,
      "VIBRATES": 2666,
      "SOBBING": 2667,
      "Environment": 2668,
      "determines": 2669,
      "SCREECHING": 2670,
      "Sorbonne": 2671,
      "captured": 2672,
      "CONTINUES": 2673,
      "Worldwide7477": 2674
    },
    "merges": [
      "t h",
      "o u",
      "i n",
      "e r",
      "o n",
      "a n",
      "a t",
      "r e",
      "y ou",
      "t o",
      "th e",
      "in g",
      "l l",
      "m e",
      "i s",
      "l e",
      "o r",
      "i t",
      "e n",
      "s t",
      "s e",
      "o w",
      "a r",
      "h e",
      "v e",
      "a y",
      "o t",
      ". .",
      "o f",
      "e d",
      "a l",
      "i c",
      "e s",
      "a s",
      "e t",
      "er e",
      "i d",
      "b e",
      "a c",
      "th at",
      "an d",
      "i g",
      "i on",
      "h at",
      "r o",
      "f or",
      "o o",
      "Y ou",
      "h t",
      "h a",
      "d o",
      "o me",
      "a ll",
      "w i",
      "ig ht",
      "l d",
      "c h",
      "k e",
      "u t",
      "I N",
      "i m",
      ".. .",
      "a d",
      "ou t",
      "a b",
      "h ere",
      "n ow",
      "w e",
      "W e",
      "on e",
      "n d",
      "you r",
      "a g",
      "l i",
      "u p",
      "v er",
      "u r",
      "n e",
      "a m",
      "m y",
      "u st",
      "n ot",
      "T he",
      "l y",
      "H e",
      "a re",
      "c k",
      "c t",
      "i r",
      "th is",
      "n a",
      "w h",
      "IN G",
      "g et",
      "p e",
      "th ing",
      "ha ve",
      "u n",
      "wi th",
      "l o",
      "s h",
      "o m",
      "an t",
      "W hat",
      "k now",
      "t r",
      "w as",
      "at ion",
      "r ight",
      "th er",
      "en t",
      "I t",
      "N o",
      "g o",
      "oo k",
      "u s",
      "g ot",
      "i f",
      "n o",
      "t e",
      "i ll",
      "d e",
      "s ome",
      "ou ld",
      "ac k",
      "T h",
      "m o",
      "n t",
      "k ay",
      "u l",
      "u ck",
      "at e",
      "c e",
      "A N",
      "c an",
      "i le",
      "w ant",
      "th ere",
      "ro m",
      "oo d",
      "d on",
      "j ust",
      "r i",
      "ou r",
      "in d",
      "a h",
      "h im",
      "p l",
      "t a",
      "a p",
      "g on",
      "e p",
      "u se",
      "is t",
      "ar t",
      "A ll",
      "O N",
      "s o",
      "in k",
      "u re",
      "w or",
      "w hat",
      "gon na",
      "f e",
      "f rom",
      "i l",
      "i ve",
      "in e",
      "ar d",
      "wi ll",
      "ab out",
      "A nd",
      "T H",
      "a in",
      "c om",
      "w ay",
      "O U",
      "g e",
      "s a",
      "t er",
      "x t",
      "ic k",
      "b o",
      "m an",
      "p er",
      "p le",
      "W h",
      "u e",
      "ou nd",
      "I n",
      "b y",
      "c on",
      "d i",
      "d ay",
      "f o",
      "l ook",
      "p ro",
      "r y",
      "id e",
      "We ll",
      "li ke",
      "a se",
      "b ut",
      "e ah",
      "g u",
      "t i",
      "se e",
      "ow n",
      "E S",
      "O kay",
      "s s",
      "0 0",
      "E R",
      "g r",
      "k ing",
      "th ink",
      "to p",
      "or t",
      "ab le",
      "He y",
      "Th is",
      "T hat",
      "a st",
      "b er",
      "d id",
      "p t",
      "p re",
      "r a",
      "ic e",
      "b le",
      "f a",
      "g ood",
      "o l",
      "p r",
      "p en",
      "ver y",
      "wh o",
      "B ut",
      "O h",
      "Y eah",
      "a ve",
      "d er",
      "o ld",
      "s ay",
      "on g",
      "L L",
      "c l",
      "f uck",
      "i z",
      "s er",
      "v en",
      "the y",
      "ac e",
      "all y",
      "C ome",
      "c a",
      "p o",
      "u g",
      "u m",
      "an y",
      "me nt",
      "en d",
      "be en",
      "some thing",
      "I S",
      "N ow",
      "R e",
      "a ke",
      "i e",
      "k ill",
      "p ort",
      "t le",
      "y s",
      "le ct",
      "it e",
      "es s",
      "ag e",
      "ti me",
      "A T",
      "C H",
      "C K",
      "D e",
      "E A",
      "H ow",
      "S o",
      "a k",
      "e x",
      "e ar",
      "o b",
      "p ut",
      "s he",
      "t y",
      "an g",
      "of f",
      "do ing",
      "ne ed",
      "C h",
      "D o",
      "S I",
      "b ack",
      "c ome",
      "c all",
      "d y",
      "d own",
      "o kay",
      "q u",
      "u b",
      "ac h",
      "ac t",
      "wh en",
      "D on",
      "G o",
      "G et",
      "N ot",
      "T e",
      "c re",
      "f ile",
      "t al",
      "w on",
      "w ould",
      "an k",
      "it tle",
      "na me",
      "G H",
      "L et",
      "O R",
      "U n",
      "a it",
      "b r",
      "c o",
      "d is",
      "e l",
      "i re",
      "i es",
      "l ittle",
      "m in",
      "w r",
      "er s",
      "the n",
      "it y",
      "se l",
      "one y",
      "ur n",
      "sh ould",
      "A n",
      "E x",
      "I T",
      "J ust",
      "L A",
      "M E",
      "M o",
      "S h",
      "Y OU",
      "b re",
      "c ur",
      "d d",
      "e m",
      "e ct",
      "h is",
      "h and",
      "i an",
      "s p",
      "s up",
      "le t",
      "se t",
      "as s",
      "ha d",
      "ne w",
      "tr y",
      "pl ay",
      "sa id",
      "- -",
      "A s",
      "L ook",
      "W H",
      "a v",
      "f ir",
      "n ight",
      "s id",
      "s ure",
      "t ing",
      "u ll",
      "w ere",
      "re e",
      "st art",
      "se lect",
      "ic a",
      "ic ation",
      "ion s",
      "for m",
      "ta ke",
      "wor k",
      "A m",
      "E N",
      "G R",
      "I f",
      "M y",
      "P le",
      "S e",
      "S t",
      "T O",
      "c le",
      "h er",
      "h as",
      "i a",
      "o ther",
      "s on",
      "t w",
      "v ice",
      "w here",
      "ou s",
      "in t",
      "an s",
      "at ch",
      "to r",
      "es k",
      "go ing",
      "use d",
      "bo dy",
      "fo re",
      "fuck ing",
      "iz e",
      "C an",
      "J u",
      "M r",
      "M AN",
      "S he",
      "U CK",
      "a me",
      "a il",
      "a way",
      "c are",
      "c ould",
      "f f",
      "f ind",
      "l ing",
      "m oney",
      "r or",
      "r un",
      "u ch",
      "w al",
      "ou g",
      "an ce",
      "the m",
      "me m",
      "me n",
      "is e",
      "is s",
      "ar y",
      "ad y",
      "lo ve",
      "te xt",
      "gu y",
      "ty pe",
      "won der",
      "Ple ase",
      "esk top",
      "D id",
      "F uck",
      "J ack",
      "L ES",
      "N T",
      "O n",
      "T r",
      "W here",
      "a u",
      "a w",
      "c he",
      "f ound",
      "l ow",
      "l ist",
      "m ad",
      "o ver",
      "s it",
      "s pe",
      "in to",
      "at ed",
      "to o",
      "me an",
      "le ep",
      "or d",
      "ag es",
      "ur t",
      "ct ion",
      "sh it",
      "mo re",
      "did n",
      "ble m",
      "ca use",
      "sel f",
      "select ed",
      "5 0",
      "A R",
      "A re",
      "B E",
      "C on",
      "D E",
      "D O",
      "G ood",
      "H ere",
      "I s",
      "P re",
      "P ro",
      "R I",
      "T here",
      "T ake",
      "b it",
      "b ro",
      "e y",
      "f er",
      "g ive",
      "h ow",
      "k id",
      "k ind",
      "l p",
      "m m",
      "m ar",
      "m uch",
      "o ple",
      "p h",
      "q ue",
      "v ing",
      "w ait",
      "y ear",
      "re al",
      "re ally",
      "to day",
      "le ave",
      "en ce",
      "se d",
      "ar ound",
      "ay be",
      "al way",
      "be fore",
      "ha p",
      "do es",
      "ne ver",
      "The y",
      "got ta",
      "mo ve",
      "ul t",
      "ON E",
      "fe ct",
      "com ing",
      "Wh y",
      "con t",
      "pro blem",
      "sid ent",
      "alway s",
      "A r",
      "A dd",
      "C O",
      "C T",
      "C om",
      "C ol",
      "D is",
      "E T",
      "E very",
      "K E",
      "L e",
      "L ist",
      "N e",
      "O pen",
      "P H",
      "R ING",
      "U NT",
      "V I",
      "W he",
      "b ab",
      "b us",
      "c r",
      "c ra",
      "d s",
      "d re",
      "e ver",
      "f un",
      "f ul",
      "i x",
      "i ld",
      "i ly",
      "i ous",
      "j ob",
      "l ot",
      "l ine",
      "l ong",
      "m ag",
      "m ake",
      "n y",
      "p art",
      "s or",
      "s ir",
      "s ide",
      "s top",
      "t on",
      "u h",
      "u nd",
      "u ff",
      "v is",
      "z y",
      "ou se",
      "er ica",
      "on ly",
      "re nt",
      "the me",
      "st r",
      "he ll",
      "he ad",
      "oo l",
      "we ll",
      "un ch",
      "lo c",
      "sh o",
      "mo st",
      "ind ow",
      "pl ication",
      "TH E",
      "Wh o",
      "ER E",
      "any thing",
      "Te xt",
      "tal k",
      "form ation",
      "Am erica",
      "GR UNT",
      "tw o",
      "mem ber",
      "que st",
      "year s",
      "A LL",
      "B urt",
      "D P",
      "D esktop",
      "K DE",
      "L O",
      "M U",
      "O ne",
      "P l",
      "P LA",
      "R o",
      "S O",
      "S im",
      "W ow",
      "Y ING",
      "b et",
      "c ar",
      "c lo",
      "c ri",
      "c ard",
      "d u",
      "d one",
      "d ri",
      "e f",
      "e very",
      "f l",
      "f ig",
      "g re",
      "h o",
      "h ome",
      "h ard",
      "i al",
      "k en",
      "l ast",
      "m on",
      "m and",
      "n er",
      "o se",
      "r ow",
      "an c",
      "an ge",
      "at er",
      "at ing",
      "the ir",
      "is h",
      "or s",
      "en g",
      "en se",
      "st all",
      "ve d",
      "ve s",
      "as k",
      "ro l",
      "do c",
      "ke ys",
      "ag ain",
      "li fe",
      "am n",
      "wh y",
      "get s",
      "pe ople",
      "lo g",
      "no thing",
      "te ll",
      "ap plication",
      "ure s",
      "pt ion",
      "cl ick",
      "ie w",
      "CH UCK",
      "SI C",
      "Go d",
      "file s",
      "GH S",
      "bre ak",
      "cur rent",
      "sup port",
      "fir st",
      "wal k",
      "oug h",
      "hap pen",
      "PH ONE",
      "Whe ther",
      "cra zy",
      "mag ic",
      "DP I",
      "MU SIC",
      "1 2",
      "7 2",
      "8 0",
      "A l",
      "B R",
      "B e",
      "B et",
      "B ag",
      "D V",
      "E D",
      "E n",
      "E u",
      "E LL",
      "F or",
      "H ar",
      "I R",
      "J im",
      "M B",
      "R es",
      "R ight",
      "S P",
      "S T",
      "S ome",
      "T y",
      "U p",
      "W ait",
      "\\ \\",
      "a x",
      "a be",
      "b l",
      "b u",
      "b ar",
      "b ra",
      "c ess",
      "d if",
      "e g",
      "e k",
      "e le",
      "e ven",
      "f ull",
      "g en",
      "i p",
      "i th",
      "i ed",
      "i ke",
      "j ect",
      "l ic",
      "l ate",
      "m ust",
      "n ing",
      "o c",
      "o g",
      "p ack",
      "r id",
      "r ist",
      "s m",
      "s y",
      "s to",
      "s ch",
      "s ur",
      "s leep",
      "t s",
      "t ion",
      "t urn",
      "v al",
      "w indow",
      "in al",
      "in ter",
      "er y",
      "er ror",
      "an other",
      "re ady",
      "re member",
      "to ge",
      "st and",
      "st ill",
      "st ep",
      "se con",
      "ar ing",
      "he ard",
      "be cause",
      "ac c",
      "ro pe",
      "ch ang",
      "ch ild",
      "ut e",
      "li e",
      "ne xt",
      "am ily",
      "ir l",
      "wh ile",
      "lo st",
      "sh ow",
      "Th ank",
      "mo ther",
      "pl ace",
      "so l",
      "fe el",
      "per son",
      "Wh en",
      "di e",
      "di th",
      "gu ys",
      "fa ult",
      "who le",
      "say ing",
      "um ber",
      "Ch rist",
      "tal king",
      "wr ong",
      "sp ace",
      "try ing",
      "As ia",
      "fir m",
      "cle ar",
      "Ju dith",
      "mad e",
      "ey es",
      "cont rol",
      "CO ME",
      "und er",
      "PLA YING",
      "fig ure",
      "CHUCK LES",
      "DV D",
      "Eu rope",
      "Ty pe",
      "toge ther",
      "' .",
      "1 0",
      "B r",
      "C R",
      "C OU",
      "D I",
      "E r",
      "F R",
      "F l",
      "H i",
      "H ave",
      "H ang",
      "H mm",
      "J o",
      "K ING",
      "L E",
      "L ING",
      "M an",
      "O r",
      "P o",
      "S ar",
      "S ir",
      "U ser",
      "W on",
      "W ith",
      "Y es",
      "a f",
      "a th",
      "b or",
      "b all",
      "b ir",
      "b ug",
      "c it",
      "c our",
      "c ase",
      "d r",
      "d at",
      "d ing",
      "d es",
      "d et",
      "d ate",
      "e st",
      "f t",
      "f ri",
      "f ine",
      "f ace",
      "f amily",
      "g un",
      "g irl",
      "i k",
      "i ble",
      "j o",
      "k new",
      "m s",
      "m ill",
      "m ind",
      "m ach",
      "m iss",
      "m aybe",
      "p i",
      "p y",
      "p ar",
      "p ain",
      "u th",
      "u al",
      "v o",
      "v id",
      "v iew",
      "w n",
      "w an",
      "w om",
      "w atch",
      "y eah",
      "th ank",
      "th ree",
      "in side",
      "er a",
      "at ter",
      "to m",
      "to ld",
      "to ry",
      "to wn",
      "the se",
      "ll ow",
      "me t",
      "le d",
      "le s",
      "le men",
      "st e",
      "st ay",
      "st one",
      "st em",
      "st uff",
      "se ss",
      "he lp",
      "ve l",
      "ot ect",
      "ic h",
      "be st",
      "be lie",
      "for got",
      "ke ep",
      "im ages",
      "we ek",
      "ag er",
      "am a",
      "my self",
      "He ll",
      "get ting",
      "know n",
      "tr a",
      "ent lemen",
      "if ication",
      "te st",
      "de l",
      "ul ation",
      "AN D",
      "ile d",
      "ile s",
      "want ed",
      "ta king",
      "wor ld",
      "com p",
      "com ple",
      "per i",
      "ple ase",
      "look ing",
      "pro ject",
      "gr ow",
      "gr ound",
      "pre ss",
      "pre sident",
      "pr otect",
      "der stone",
      "cre en",
      "dis c",
      "wr ite",
      "An y",
      "dd amn",
      "sup po",
      "ail able",
      "spe c",
      "bro ken",
      "List en",
      "Ne w",
      "sor ry",
      "sho ot",
      "ef fect",
      "sy stem",
      "Sar ah",
      "Won derstone",
      "fri end",
      "wan na",
      "wom an",
      "\" .",
      "' %",
      "1 80",
      "9 0",
      "A L",
      "A c",
      "A f",
      "A p",
      "A nt",
      "B A",
      "B y",
      "B LO",
      "C D",
      "C o",
      "C ELL",
      "D own",
      "E xt",
      "E ven",
      "F UCK",
      "G U",
      "G r",
      "G en",
      "G ame",
      "G ET",
      "H A",
      "H old",
      "H ERE",
      "K e",
      "K o",
      "L Y",
      "L a",
      "L ight",
      "L ike",
      "M Y",
      "M e",
      "M er",
      "M ar",
      "M iss",
      "M aybe",
      "N A",
      "N or",
      "O P",
      "O f",
      "R A",
      "S E",
      "S c",
      "S er",
      "S to",
      "S et",
      "S te",
      "S ave",
      "S end",
      "S ub",
      "S CR",
      "T it",
      "T ag",
      "U se",
      "V al",
      "W M",
      "W all",
      "W AN",
      "Y o",
      "a ut",
      "a ther",
      "a king",
      "b s",
      "b ed",
      "b ig",
      "b ad",
      "b ur",
      "b uck",
      "b il",
      "b urn",
      "b ling",
      "c es",
      "c ent",
      "c ord",
      "d le",
      "d ic",
      "d esktop",
      "d pi",
      "e ach",
      "f ood",
      "f ive",
      "g er",
      "g an",
      "g am",
      "h it",
      "h old",
      "h ouse",
      "k es",
      "k ick",
      "l ater",
      "m er",
      "m as",
      "m ain",
      "n umber",
      "p rom",
      "p ap",
      "r an",
      "r ica",
      "s u",
      "s ing",
      "s low",
      "s ense",
      "t ty",
      "u ment",
      "v or",
      "v ious",
      "w er",
      "w ent",
      "w ard",
      "w ide",
      "x y",
      "th ose",
      "th row",
      "ou th",
      "in o",
      "in ess",
      "in formation",
      "in stall",
      "er al",
      "at t",
      "re l",
      "re n",
      "re st",
      "re port",
      "re move",
      "me d",
      "me ss",
      "le g",
      "le y",
      "le ft",
      "it able",
      "st ate",
      "ar ch",
      "he d",
      "he art",
      "he era",
      "al s",
      "al one",
      "al ive",
      "as h",
      "id ent",
      "id ge",
      "be ing",
      "ig n",
      "You r",
      "ha ll",
      "wi fe",
      "ch ance",
      "ut es",
      "ad es",
      "li z",
      "li ve",
      "thing s",
      "un k",
      "tr ue",
      "tr uth",
      "was n",
      "ent er",
      "us ing",
      "if ic",
      "no ther",
      "some one",
      "Th en",
      "ce pt",
      "AN S",
      "can not",
      "want s",
      "ta in",
      "fe w",
      "TH ING",
      "TH ERE",
      "com mand",
      "sa w",
      "man ager",
      "In formation",
      "fo ot",
      "pre tty",
      "fa ther",
      "say s",
      "ser t",
      "po sit",
      "IS O",
      "IS T",
      "De vice",
      "De fault",
      "ex tra",
      "put er",
      "SI M",
      "SI GHS",
      "call ed",
      "Te ll",
      "cre ate",
      "GH T",
      "br ing",
      "ire d",
      "min utes",
      "Sh it",
      "Sh ow",
      "bre a",
      "sp ades",
      "WH AT",
      "sid er",
      "EN D",
      "St re",
      "oug ht",
      "On ly",
      "che ck",
      "Con figure",
      "Pre sident",
      "Pre view",
      "fer ent",
      "mar k",
      "Every thing",
      "bab ly",
      "bus iness",
      "fun ny",
      "vis ion",
      "GRUNT S",
      "GRUNT ING",
      "Sim on",
      "bet ter",
      "cri ption",
      "dri ver",
      "support ed",
      "happen ed",
      "Bag heera",
      "SP EA",
      "dif ferent",
      "pack age",
      "sto le",
      "sch ool",
      "Christ mas",
      "Er ror",
      "cour se",
      "dat a",
      "gun s",
      "mach in",
      "sess ion",
      "belie ve",
      "Hell o",
      "comple te",
      "spec if",
      "Af rica",
      "Mer ry",
      "Val ue",
      "bil ity",
      "\" %",
      "1 1",
      "1 5",
      "1 6",
      "2 00",
      "3 0",
      "4 9",
      "6 0",
      "A h",
      "A v",
      "A li",
      "A ust",
      "A ct",
      "A nother",
      "B O",
      "B l",
      "B o",
      "B oo",
      "B ill",
      "B ack",
      "B ra",
      "B abe",
      "C A",
      "C a",
      "C re",
      "C he",
      "C ha",
      "C enter",
      "D et",
      "D av",
      "E P",
      "E d",
      "E ar",
      "E liz",
      "F F",
      "F ile",
      "F rom",
      "F our",
      "F ire",
      "F ree",
      "G ive",
      "H E",
      "H a",
      "H o",
      "H en",
      "H EA",
      "I M",
      "J ay",
      "K on",
      "L D",
      "L o",
      "L u",
      "L ou",
      "L ad",
      "L ast",
      "M i",
      "M en",
      "M IN",
      "M ess",
      "N O",
      "O K",
      "O ld",
      "O pt",
      "O ANS",
      "O FF",
      "P A",
      "P r",
      "P al",
      "P ac",
      "R en",
      "R us",
      "R ep",
      "R iz",
      "S p",
      "S or",
      "S we",
      "S na",
      "S pe",
      "S top",
      "S pr",
      "S ear",
      "S leep",
      "S creen",
      "S outh",
      "T et",
      "T ING",
      "T ER",
      "U ST",
      "V eg",
      "V ik",
      "W E",
      "W atch",
      "a ug",
      "b out",
      "b ase",
      "b ull",
      "c i",
      "c y",
      "c ook",
      "c ap",
      "c use",
      "c ol",
      "d en",
      "d ig",
      "d ro",
      "d ue",
      "e as",
      "f in",
      "f re",
      "f ight",
      "f lo",
      "f our",
      "f ix",
      "g one",
      "g entlemen",
      "h u",
      "h on",
      "h an",
      "h or",
      "h al",
      "h our",
      "h ind",
      "h um",
      "h urt",
      "h uh",
      "i bility",
      "l and",
      "l ick",
      "l come",
      "l aw",
      "l doc",
      "m l",
      "m ome",
      "m ight",
      "m port",
      "m atch",
      "m aking",
      "o pen",
      "o ption",
      "p s",
      "p ing",
      "p ay",
      "p ad",
      "p ri",
      "p ast",
      "p ol",
      "p ass",
      "r is",
      "r al",
      "r ic",
      "r ound",
      "s ou",
      "s in",
      "s of",
      "s im",
      "s un",
      "s ent",
      "s ize",
      "s care",
      "s che",
      "s sed",
      "u ation",
      "u ally",
      "v i",
      "v ic",
      "v ide",
      "w id",
      "y le",
      "y es",
      "z ing",
      "th day",
      "th ought",
      "in a",
      "er o",
      "er or",
      "er min",
      "on t",
      "on ce",
      "an e",
      "at s",
      "at or",
      "re d",
      "re quest",
      "re turn",
      "to re",
      "ll e",
      "is n",
      "le ar",
      "le ad",
      "le te",
      "le ast",
      "or ies",
      "it ed",
      "it ary",
      "en e",
      "st ed",
      "st ro",
      "st ation",
      "st ri",
      "se x",
      "se y",
      "se ll",
      "se arch",
      "ar m",
      "ar r",
      "ar s",
      "he ar",
      "al mon",
      "al og",
      "ic y",
      "ic on",
      "et ic",
      "et ch",
      "be aut",
      "be hind",
      "ac ing",
      "ac tor",
      "ig h",
      "ig er",
      "hat e",
      "ro ll",
      "ro ad",
      "for ward",
      "oo se",
      "ha ven",
      "ha ving",
      "ch o",
      "ch ange",
      "ke y",
      "IN D",
      "im al",
      "im age",
      "ad s",
      "ab sol",
      "we en",
      "we aring",
      "We lcome",
      "your self",
      "ag o",
      "li a",
      "li kes",
      "ne ar",
      "am s",
      "am ing",
      "He lp",
      "ir t",
      "wh ite",
      "wh ich",
      "pe ct",
      "un g",
      "un t",
      "with out",
      "lo se",
      "lo ad",
      "sh ot",
      "know s",
      "tr ust",
      "tr ain",
      "tr ick",
      "tr ave",
      "go ddamn",
      "us ic",
      "if ul",
      "te m",
      "te ch",
      "de ad",
      "mo de",
      "ul ti",
      "ri ed",
      "pl ug",
      "ap h",
      "ap pe",
      "wor d",
      "wor th",
      "wor ds",
      "il itary",
      "TH AT",
      "TH EN",
      "com puter",
      "OU R",
      "sa me",
      "ick ly",
      "bo y",
      "bo ard",
      "In stall",
      "In sert",
      "di re",
      "day s",
      "fo llow",
      "fo ldoc",
      "look s",
      "ide a",
      "gu ess",
      "gr ab",
      "think ing",
      "ast ian",
      "fa iled",
      "fa vor",
      "pr ay",
      "pr ise",
      "pr inter",
      "cl ub",
      "ser ver",
      "ser ious",
      "po s",
      "ug ge",
      "Re cent",
      "kill ing",
      "kill ed",
      "time s",
      "ak es",
      "qu it",
      "qu eror",
      "Un able",
      "br idge",
      "co p",
      "co ver",
      "ire ction",
      "wr itable",
      "sel ves",
      "LA U",
      "Mo ve",
      "Mo de",
      "YOU R",
      "cur sor",
      "hand s",
      "hand le",
      "As k",
      "start ing",
      "GR OANS",
      "Se lect",
      "cle an",
      "tw are",
      "int s",
      "int ere",
      "ans late",
      "tor m",
      "Ju lia",
      "run ning",
      "mem ories",
      "love s",
      "text ures",
      "wonder ing",
      "Tr anslate",
      "au di",
      "list en",
      "BE LL",
      "DO OR",
      "kid s",
      "CT OR",
      "Col or",
      "Dis able",
      "Every body",
      "RING S",
      "RING ING",
      "VI CTOR",
      "bab y",
      "bus y",
      "part ner",
      "loc al",
      "loc ation",
      "quest ion",
      "Pl ay",
      "clo se",
      "cri pt",
      "gre at",
      "eng ine",
      "log in",
      "click s",
      "12 00",
      "72 0",
      "Har ley",
      "Jim my",
      "Res tore",
      "abe th",
      "full y",
      "sur prise",
      "secon d",
      "secon ds",
      "acc ident",
      "chang es",
      "child ren",
      "ute ly",
      "Thank s",
      "under stand",
      "FR AN",
      "bor der",
      "bir thday",
      "mill ion",
      "watch ing",
      "peri ence",
      "grow l",
      "suppo sed",
      "friend s",
      "Ant on",
      "FUCK ING",
      "Ke ep",
      "Ko re",
      "Nor th",
      "Sc roll",
      "Ser vice",
      "Tit le",
      "burn ing",
      "dic tion",
      "gam bling",
      "prom ise",
      "pap er",
      "posit ion",
      "SIM ON",
      "brea thing",
      "Stre et",
      "SPEA KING",
      "machin ery",
      "specif ied",
      "Aust ral",
      "Bl ack",
      "Ca use",
      "Cre ate",
      "Dav ide",
      "Eliz abeth",
      "Hen ry",
      "Jay e",
      "Kon queror",
      "Lad ies",
      "Mi B",
      "Pac ific",
      "Rus s",
      "Sna ke",
      "Spr ing",
      "Sear ch",
      "Veg as",
      "Vik a",
      "hal f",
      "hour s",
      "law y",
      "mome nt",
      "ris k",
      "sof tware",
      "stri ke",
      "beaut iful",
      "absol utely",
      "trick s",
      "follow ing",
      "Austral ia",
      "\" ?",
      "' ,",
      "' ?",
      "1 4",
      "1 00",
      "2 4",
      "3 00",
      "4 5",
      "4 7",
      "6 00",
      "7 47",
      "8 8",
      "8 00",
      "= =",
      "= \\\\",
      "@ }",
      "A D",
      "A t",
      "A u",
      "A ss",
      "A LA",
      "A wal",
      "A bout",
      "B 5",
      "B B",
      "B U",
      "B re",
      "B ar",
      "B al",
      "B us",
      "B el",
      "B urn",
      "C J",
      "C hat",
      "C ur",
      "C tr",
      "C ould",
      "C ON",
      "C AR",
      "C lick",
      "D M",
      "D U",
      "D re",
      "D es",
      "D ON",
      "E E",
      "E H",
      "E V",
      "E Y",
      "E ll",
      "E nd",
      "E LE",
      "E yes",
      "F L",
      "F a",
      "F o",
      "F ar",
      "F ine",
      "F old",
      "F ull",
      "F RI",
      "F rid",
      "G A",
      "G L",
      "G N",
      "G O",
      "G re",
      "G ur",
      "G OR",
      "G ree",
      "G entlemen",
      "H I",
      "H T",
      "H on",
      "H is",
      "H or",
      "H ad",
      "H AN",
      "H ap",
      "I Z",
      "I nd",
      "I nt",
      "I TH",
      "I LL",
      "I mport",
      "J A",
      "J er",
      "J am",
      "J av",
      "J UST",
      "K ill",
      "K ey",
      "K DM",
      "L is",
      "L ow",
      "L ON",
      "L ink",
      "L OU",
      "L AT",
      "L ady",
      "L ord",
      "L eng",
      "M S",
      "M in",
      "M or",
      "M al",
      "M om",
      "M mm",
      "M ult",
      "M ike",
      "M ama",
      "N on",
      "N et",
      "N one",
      "N AT",
      "N anc",
      "N umber",
      "N iles",
      "O T",
      "O ut",
      "O ver",
      "O ur",
      "O ther",
      "O MAN",
      "O xy",
      "P e",
      "P ap",
      "P ER",
      "P ass",
      "R E",
      "R O",
      "R Y",
      "R a",
      "R u",
      "R ic",
      "S H",
      "S V",
      "S up",
      "S ING",
      "S our",
      "S ep",
      "S ure",
      "S il",
      "S old",
      "S TO",
      "S ize",
      "S low",
      "S torm",
      "S cript",
      "T i",
      "T on",
      "T oo",
      "T IN",
      "T ON",
      "T ES",
      "T urn",
      "T ool",
      "T ED",
      "T iger",
      "U P",
      "U h",
      "U m",
      "U ES",
      "U RI",
      "U sed",
      "U MB",
      "V E",
      "V ic",
      "V iew",
      "V ery",
      "V irt",
      "W or",
      "W ar",
      "W al",
      "W ill",
      "W indow",
      "W IND",
      "W ITH",
      "W OMAN",
      "Y or",
      "Y ELL",
      "Z Z",
      "Z ero",
      "a i",
      "a ver",
      "b t",
      "b in",
      "b on",
      "b at",
      "b ot",
      "b es",
      "b as",
      "b ook",
      "b ill",
      "b ul",
      "b ri",
      "b astian",
      "c ou",
      "c er",
      "c ed",
      "c am",
      "c us",
      "c ity",
      "c cess",
      "c tory",
      "d up",
      "d ah",
      "d ance",
      "d anc",
      "e c",
      "e th",
      "e vid",
      "f ing",
      "f it",
      "f ab",
      "f ly",
      "f act",
      "f ire",
      "f used",
      "f inal",
      "f etch",
      "g g",
      "g i",
      "g y",
      "g or",
      "g ay",
      "g us",
      "g ame",
      "h ot",
      "h ur",
      "h om",
      "h oney",
      "h mm",
      "h ired",
      "i o",
      "i v",
      "i ther",
      "i tory",
      "j ung",
      "k er",
      "k ed",
      "l s",
      "l t",
      "l ay",
      "l im",
      "l am",
      "l uck",
      "l aug",
      "m ing",
      "m is",
      "m or",
      "m ay",
      "m ut",
      "m bo",
      "m ouse",
      "m ax",
      "m atter",
      "m iles",
      "m usic",
      "m ulti",
      "m ilitary",
      "n u",
      "n on",
      "n it",
      "n al",
      "n if",
      "n ine",
      "n ice",
      "n ess",
      "p ow",
      "p ed",
      "p ur",
      "p lo",
      "p ant",
      "p ill",
      "p ick",
      "p unch",
      "r u",
      "r ad",
      "r ub",
      "s c",
      "s k",
      "s en",
      "s ion",
      "s now",
      "s ist",
      "s ong",
      "s ie",
      "s qu",
      "s ix",
      "s creen",
      "s almon",
      "s ugge",
      "t p",
      "t z",
      "t re",
      "t ure",
      "t ick",
      "t ask",
      "u k",
      "u v",
      "u ne",
      "v ac",
      "v ir",
      "v ent",
      "v ul",
      "w w",
      "w it",
      "w all",
      "w ood",
      "w ater",
      "w ish",
      "x ic",
      "y a",
      "y n",
      "y p",
      "y ing",
      "y ed",
      "z one",
      "{ @}",
      "ü g",
      "th an",
      "th ough",
      "ou d",
      "ou nt",
      "ou ble",
      "in i",
      "in ed",
      "in ch",
      "in str",
      "er n",
      "on s",
      "on ment",
      "on tal",
      "at ic",
      "at es",
      "at ibility",
      "re g",
      "re me",
      "re ad",
      "re pe",
      "re ce",
      "re pl",
      "re ach",
      "re place",
      "re cord",
      "re pos",
      "re fused",
      "to l",
      "to ol",
      "ll s",
      "me ans",
      "is in",
      "is on",
      "is ed",
      "is tol",
      "le ss",
      "le vel",
      "it a",
      "it ar",
      "it im",
      "it ran",
      "en try",
      "en ough",
      "en ces",
      "st ing",
      "st up",
      "st uck",
      "st ra",
      "st age",
      "st yle",
      "se c",
      "se s",
      "se at",
      "se en",
      "se ction",
      "ow s",
      "ar i",
      "ar ac",
      "ar ms",
      "he h",
      "he ight",
      "ot e",
      "ot s",
      "al m",
      "al so",
      "al most",
      "al ready",
      "ic ul",
      "es y",
      "as p",
      "as on",
      "as ing",
      "as set",
      "as hed",
      "et c",
      "id es",
      "id dle",
      "id irection",
      "be ar",
      "be ha",
      "be long",
      "be lt",
      "ac id",
      "ac ti",
      "ig inal",
      "for t",
      "for get",
      "for med",
      "oo ling",
      "ht ml",
      "ht tp",
      "all ow",
      "ld wide",
      "ch ick",
      "ch asing",
      "ut s",
      "IN E",
      "IN T",
      "im iz",
      "im inal",
      "ad dy",
      "ad vice",
      "ad dre",
      "out fit",
      "we ap",
      "nd a",
      "ag r",
      "ag on",
      "ag ed",
      "li er",
      "li ent",
      "li ving",
      "ur der",
      "am ate",
      "am bo",
      "am ple",
      "not ification",
      "The se",
      "are d",
      "ck et",
      "ir d",
      "pe ace",
      "un known",
      "sh ort",
      "sh ip",
      "ant ed",
      "What ever",
      "tr unk",
      "ation s",
      "go es",
      "ook s",
      "us er",
      "if f",
      "te am",
      "ill eg",
      "de vice",
      "de fault",
      "de ath",
      "de bug",
      "de stro",
      "ould n",
      "Th ree",
      "Th ose",
      "mo ving",
      "AN I",
      "AN TON",
      "our selves",
      "pl an",
      "ta st",
      "ta ken",
      "ap pro",
      "gon es",
      "ist er",
      "All ow",
      "wor se",
      "wor ry",
      "wor king",
      "ain s",
      "sa fe",
      "sa il",
      "ter s",
      "bo ys",
      "man y",
      "per ing",
      "per form",
      "per fect",
      "ple ment",
      "Wh ile",
      "Wh ite",
      "by gones",
      "con firm",
      "con figure",
      "con sider",
      "di alog",
      "fo x",
      "pro gr",
      "pro du",
      "pro vid",
      "pro bably",
      "but ton",
      "gu itar",
      "see k",
      "see ing",
      "ss ible",
      "00 0",
      "gr and",
      "pt y",
      "pt ed",
      "pre vious",
      "fa ir",
      "pr oud",
      "pr ison",
      "who a",
      "cl ou",
      "cl ass",
      "fuck er",
      "iz ation",
      "iz ontal",
      "ven ir",
      "ca me",
      "ca pe",
      "ca ug",
      "po ssible",
      "um n",
      "any where",
      "end ed",
      "IS H",
      "IS PER",
      "Re m",
      "Re set",
      "Re ady",
      "ie f",
      "ite m",
      "AT ES",
      "AT OR",
      "CH ING",
      "CH IM",
      "De lete",
      "EA R",
      "EA THING",
      "ex cit",
      "ear ly",
      "ear lier",
      "ob ser",
      "ob ooks",
      "she ep",
      "ang er",
      "ang le",
      "off line",
      "Ch ange",
      "back s",
      "back ground",
      "come s",
      "qu ired",
      "qu ickly",
      "act ing",
      "act ion",
      "act ive",
      "act ually",
      "Go ddamn",
      "Te st",
      "cre t",
      "cre am",
      "GH ING",
      "Un cle",
      "Un known",
      "Un idirection",
      "br ary",
      "co re",
      "co lle",
      "dis play",
      "dis appe",
      "el se",
      "min ute",
      "An gus",
      "Ex port",
      "Ex cept",
      "Ex cuse",
      "Ex perience",
      "Mo re",
      "Mo ther",
      "hand led",
      "ian s",
      "play ing",
      "play ed",
      "play list",
      "WH Y",
      "WH IST",
      "WH ISPER",
      "av ailable",
      "ting s",
      "start ed",
      "work s",
      "work ed",
      "Am a",
      "Am ber",
      "Se an",
      "Se bastian",
      "Se cret",
      "ans wer",
      "Ju dah",
      "ail s",
      "care ful",
      "could n",
      "wal king",
      "love d",
      "wonder ful",
      "Tr üg",
      "au ction",
      "spe ll",
      "spe ak",
      "too k",
      "AR D",
      "AR T",
      "Con firm",
      "Pro bably",
      "RI C",
      "RI GHT",
      "bit ch",
      "bro ke",
      "fer ences",
      "kid ding",
      "mar ried",
      "ph an",
      "ph one",
      "ph ant",
      "does n",
      "Ar m",
      "Ar buck",
      "Add ed",
      "CT RIC",
      "Com mand",
      "Com bs",
      "Col ton",
      "Col ors",
      "Dis play",
      "KE EP",
      "Le vel",
      "VI BR",
      "VI LY",
      "cr ashed",
      "cr iminal",
      "ild ing",
      "stop s",
      "str ong",
      "str ange",
      "head ing",
      "Who a",
      "Text s",
      "talk ed",
      "quest ions",
      "Ro ck",
      "Ro sie",
      "SO BB",
      "Sim ulation",
      "clo ck",
      "card s",
      "du le",
      "every body",
      "ho les",
      "mon th",
      "ner able",
      "ved ere",
      "doc ument",
      "tell ing",
      "click ing",
      "walk ed",
      "Al t",
      "BR EATHING",
      "Be cause",
      "Bet ter",
      "Bet ty",
      "Bet ween",
      "En vir",
      "Har ry",
      "Some body",
      "Up d",
      "\\\\ {@}",
      "bu d",
      "bu y",
      "cess ible",
      "ele ment",
      "ele phant",
      "rid ing",
      "sm all",
      "sm art",
      "sto re",
      "sch ooling",
      "inter nal",
      "chang ed",
      "mother fucking",
      "mother fucker",
      "Christ ian",
      "COU GHS",
      "Fl int",
      "Hang ul",
      "Jo es",
      "Or gan",
      "Po p",
      "User name",
      "af fect",
      "cit al",
      "dr ink",
      "des cription",
      "det ermin",
      "mill ions",
      "miss ion",
      "thank s",
      "week s",
      "test s",
      "del ay",
      "grow ling",
      "protect ing",
      "Any one",
      "suppo se",
      "180 x",
      "Ac cessible",
      "BLO CK",
      "Co de",
      "Ext ended",
      "GU N",
      "Gen eral",
      "La unch",
      "Mar wood",
      "Sto ck",
      "Ste ve",
      "Ste phan",
      "Sub type",
      "SCR EA",
      "SCR EE",
      "WAN NA",
      "WAN TED",
      "kick ed",
      "su ccess",
      "sing le",
      "vious ly",
      "install ed",
      "rel ax",
      "mess age",
      "mess ages",
      "state ment",
      "heart s",
      "Tell er",
      "complete ly",
      "Av ailable",
      "Ali en",
      "BO TH",
      "Boo m",
      "Bill y",
      "Bra vo",
      "Che ck",
      "Det ect",
      "Ed it",
      "Ear l",
      "Fire fox",
      "Ho st",
      "HEA VILY",
      "Lou is",
      "NO W",
      "Opt ions",
      "Pr int",
      "Rep ort",
      "Sp acing",
      "Sor bon",
      "Spe ak",
      "base d",
      "bull shit",
      "cap ture",
      "dro p",
      "eas y",
      "fre sh",
      "flo or",
      "hum ming",
      "pad dle",
      "pol icy",
      "sou venir",
      "sun ny",
      "scare d",
      "vide o",
      "request ed",
      "lear n",
      "ene my",
      "pect ed",
      "unt il",
      "train ing",
      "trave l",
      "plug in",
      "dire ctory",
      "favor ite",
      "club s",
      "Disable d",
      "1200 x",
      "FRAN CK",
      "Scroll back",
      "Title bar",
      "diction ary",
      "Russ ian",
      "Search ing",
      "lawy er",
      "747 7",
      "=\\\\ \\\\{@}",
      "Bre nda",
      "Bal oo",
      "Bel vedere",
      "CJ K",
      "Ctr l",
      "CON TIN",
      "DU KE",
      "Des cription",
      "Ell en",
      "ELE CTRIC",
      "FL INT",
      "Fo llow",
      "Fold er",
      "FRI END",
      "Frid ay",
      "Gree ly",
      "HAN K",
      "Hap py",
      "Jer sey",
      "Jam o",
      "LOU D",
      "Leng th",
      "Mult itran",
      "Net work",
      "NAT E",
      "Nanc y",
      "Oxy gen",
      "Pe ople",
      "SV N",
      "SING ING",
      "Sour ce",
      "Sil as",
      "STO P",
      "Ti me",
      "Ton ight",
      "Vic tor",
      "Virt ual",
      "Wor ldwide",
      "Yor k",
      "bat tle",
      "bes ides",
      "bas ic",
      "bri ef",
      "cou n",
      "dup lic",
      "danc ing",
      "evid ence",
      "fing er",
      "fab ric",
      "jung le",
      "max im",
      "multi ple",
      "nu clear",
      "rad io",
      "sugge st",
      "tick ling",
      "vul nerable",
      "reme ly",
      "rece ive",
      "repos itory",
      "itim ate",
      "stra ight",
      "beha vi",
      "acti v",
      "amate ur",
      "ample s",
      "illeg itimate",
      "caug ht",
      "CHIM ES",
      "Unidirection al",
      "colle ge",
      "WHISPER S",
      "Arbuck le",
      "Command er",
      "VIBR ATES",
      "SOBB ING",
      "Envir onment",
      "determin es",
      "SCREE CHING",
      "Sorbon ne",
      "capture d",
      "CONTIN UES",
      "Worldwide 7477"
    ]
  }
}