{
  "version": "1.0",
  "truncation": null,
  "padding": null,
  "added_tokens": [
    {
      "id": 0,
      "content": "[PAD]",
      "single_word": false,
      "lstrip": false,
      "rstrip": false,
      "normalized": false,
      "special": true
    },
    {
      "id": 1,
      "content": "[UNK]",
      "single_word": false,
      "lstrip": false,
      "rstrip": false,
      "normalized": false,
      "special": true
    },
    {
      "id": 2,
      "content": "[CLS]",
      "single_word": false,
      "lstrip": false,
      "rstrip": false,
      "normalized": false,
      "special": true
    },
    {
      "id": 3,
      "content": "[SEP]",
      "single_word": false,
      "lstrip": false,
      "rstrip": false,
      "normalized": false,
      "special": true
    },
    {
      "id": 4,
      "content": "[MASK]",
      "single_word": false,
      "lstrip": false,
      "rstrip": false,
      "normalized": false,
      "special": true
    }
  ],
  "normalizer": null,
  "pre_tokenizer": {
    "type": "Whitespace"
  },
  "post_processor": null,
  "decoder": null,
  "model": {
    "type": "BPE",
    "dropout": null,
    "unk_token": "[UNK]",
    "continuing_subword_prefix": null,
    "end_of_word_suffix": null,
    "fuse_unk": false,
    "byte_fallback": false,
    "vocab": {
      "[PAD]": 0,
      "[UNK]": 1,
      "[CLS]": 2,
      "[SEP]": 3,
      "[MASK]": 4,
      "!": 5,
      "\"": 6,
      "#": 7,
      "$": 8,
      "%": 9,
      "&": 10,
      "'": 11,
      "(": 12,
      ")": 13,
      "+": 14,
      ",": 15,
      "-": 16,
      ".": 17,
      "/": 18,
      "0": 19,
      "1": 20,
      "2": 21,
      "3": 22,
      "4": 23,
      "5": 24,
      "6": 25,
      "7": 26,
      "8": 27,
      "9": 28,
      ":": 29,
      "<": 30,
      "=": 31,
      ">": 32,
      "?": 33,
      "@": 34,
      "A": 35,
      "B": 36,
      "C": 37,
      "D": 38,
      "E": 39,
      "F": 40,
      "G": 41,
      "H": 42,
      "I": 43,
      "J": 44,
      "K": 45,
      "L": 46,
      "M": 47,
      "N": 48,
      "O": 49,
      "P": 50,
      "Q": 51,
      "R": 52,
      "S": 53,
      "T": 54,
      "U": 55,
      "V": 56,
      "W": 57,
      "X": 58,
      "Y": 59,
      "Z": 60,
      "[": 61,
      "\\": 62,
      "]": 63,
      "^": 64,
      "_": 65,
      "a": 66,
      "b": 67,
      "c": 68,
      "d": 69,
      "e": 70,
      "f": 71,
      "g": 72,
      "h": 73,
      "i": 74,
      "j": 75,
      "k": 76,
      "l": 77,
      "m": 78,
      "n": 79,
      "o": 80,
      "p": 81,
      "q": 82,
      "r": 83,
      "s": 84,
      "t": 85,
      "u": 86,
      "v": 87,
      "w": 88,
      "x": 89,
      "y": 90,
      "z": 91,
      "{": 92,
      "}": 93,
      "~": 94,
      "°": 95,
      "ం": 96,
      "ః": 97,
      "అ": 98,
      "ఆ": 99,
      "ఇ": 100,
      "ఈ": 101,
      "ఉ": 102,
      "ఊ": 103,
      "ఎ": 104,
      "ఏ": 105,
      "ఐ": 106,
      "ఒ": 107,
      "ఓ": 108,
      "ఔ": 109,
      "క": 110,
      "ఖ": 111,
      "గ": 112,
      "ఘ": 113,
      "చ": 114,
      "ఛ": 115,
      "జ": 116,
      "ఞ": 117,
      "ట": 118,
      "ఠ": 119,
      "డ": 120,
      "ఢ": 121,
      "ణ": 122,
      "త": 123,
      "థ": 124,
      "ద": 125,
      "ధ": 126,
      "న": 127,
      "ప": 128,
      "ఫ": 129,
      "బ": 130,
      "భ": 131,
      "మ": 132,
      "య": 133,
      "ర": 134,
      "ల": 135,
      "ళ": 136,
      "వ": 137,
      "శ": 138,
      "ష": 139,
      "స": 140,
      "హ": 141,
      "ా": 142,
      "ి": 143,
      "ీ": 144,
      "ు": 145,
      "ూ": 146,
      "ృ": 147,
      "ె": 148,
      "ే": 149,
      "ై": 150,
      "ొ": 151,
      "ో": 152,
      "ౌ": 153,
      "్": 154,
      "ౖ": 155,
      "‌": 156,
      "‍": 157,
      "♪": 158,
      "ను": 159,
      "రు": 160,
      "న్": 161,
      "ని": 162,
      "స్": 163,
      "క్": 164,
      "ర్": 165,
      "ది": 166,
      "మీ": 167,
      "రి": 168,
      "కు": 169,
      "నా": 170,
      "ప్": 171,
      "మీరు": 172,
      "లు": 173,
      "నే": 174,
      "ంచ": 175,
      "డి": 176,
      "దు": 177,
      "నేను": 178,
      "ంది": 179,
      "ట్": 180,
      "ము": 181,
      "ల్": 182,
      "కా": 183,
      "..": 184,
      "డు": 185,
      "తు": 186,
      "వా": 187,
      "లి": 188,
      "్య": 189,
      "చే": 190,
      "పు": 191,
      "గా": 192,
      "క్క": 193,
      "లే": 194,
      "ంట": 195,
      "వి": 196,
      "మా": 197,
      "న్నా": 198,
      "ఒక": 199,
      "త్": 200,
      "ై": 201,
      "రా": 202,
      "ండి": 203,
      "కి": 204,
      "లో": 205,
      "చి": 206,
      "యు": 207,
      "తి": 208,
      "యి": 209,
      "లా": 210,
      "ప్ర": 211,
      "గి": 212,
      "సం": 213,
      "గు": 214,
      "టి": 215,
      "సి": 216,
      "డా": 217,
      "ద్": 218,
      "వు": 219,
      "డ్": 220,
      "మి": 221,
      "గ్": 222,
      "లేదు": 223,
      "మరి": 224,
      "ఉంది": 225,
      "కో": 226,
      "మే": 227,
      "దా": 228,
      "స్తు": 229,
      "చ్": 230,
      "న్ని": 231,
      "పా": 232,
      "...": 233,
      "మరియు": 234,
      "am": 235,
      "న్న": 236,
      "అత": 237,
      "క్కడ": 238,
      "ందు": 239,
      "యా": 240,
      "సు": 241,
      "కొ": 242,
      "ంచి": 243,
      "తె": 244,
      "మ్": 245,
      "నికి": 246,
      "చూ": 247,
      "ప్పు": 248,
      "వె": 249,
      "రం": 250,
      "బ్": 251,
      "తా": 252,
      "on": 253,
      "మె": 254,
      "ొక్క": 255,
      "మేము": 256,
      "యొక్క": 257,
      "ళ్": 258,
      "సా": 259,
      "ంచు": 260,
      "పి": 261,
      "ame": 262,
      "in": 263,
      "తో": 264,
      "చా": 265,
      "చు": 266,
      "బా": 267,
      "ఇది": 268,
      "రే": 269,
      "వే": 270,
      "నాకు": 271,
      "నీ": 272,
      "మై": 273,
      "యం": 274,
      "వచ్": 275,
      "చె": 276,
      "ప్పుడు": 277,
      "ళ్ళ": 278,
      "టా": 279,
      "ఇక్కడ": 280,
      "క్ష": 281,
      "కే": 282,
      "తం": 283,
      "అతను": 284,
      "పొ": 285,
      "Name": 286,
      "అను": 287,
      "అన్ని": 288,
      "ఉంట": 289,
      "జా": 290,
      "తెలు": 291,
      "ంద": 292,
      "ఏమి": 293,
      "మైన": 294,
      "పో": 295,
      "ష్": 296,
      "హా": 297,
      "నం": 298,
      "రీ": 299,
      "వ్": 300,
      "ట్ట": 301,
      "చూడ": 302,
      "er": 303,
      "కలి": 304,
      "డానికి": 305,
      "or": 306,
      "అది": 307,
      "ఫ్": 308,
      "లను": 309,
      "ంగ్": 310,
      "స్తున్నా": 311,
      "రో": 312,
      "ti": 313,
      "ఉన్నా": 314,
      "రె": 315,
      "ండ": 316,
      "పే": 317,
      "స్థ": 318,
      "భా": 319,
      "కానీ": 320,
      "కలిగి": 321,
      "గొ": 322,
      "బి": 323,
      "రణ": 324,
      "ఖ్య": 325,
      "తీ": 326,
      "కాదు": 327,
      "వెళ్ళ": 328,
      "టకు": 329,
      "పె": 330,
      "లం": 331,
      "వర్": 332,
      "ద్ద": 333,
      "చూడండి": 334,
      "es": 335,
      "ఇప్పుడు": 336,
      "యో": 337,
      "హి": 338,
      "రించి": 339,
      "సిన": 340,
      "ఆమె": 341,
      "వ్య": 342,
      "కుడి": 343,
      "తెలుసు": 344,
      "ంత": 345,
      "అవు": 346,
      "సమ": 347,
      "త్త": 348,
      "ందుకు": 349,
      "చాలా": 350,
      "శా": 351,
      "ంటి": 352,
      "ar": 353,
      "డం": 354,
      "పరి": 355,
      "సరే": 356,
      "వారు": 357,
      "సంఖ్య": 358,
      "కోసం": 359,
      "సె": 360,
      "చేయ": 361,
      "ంటు": 362,
      "ంగా": 363,
      "శ్": 364,
      "హ్": 365,
      "స్తా": 366,
      "రిగి": 367,
      "ల్ల": 368,
      "గురించి": 369,
      "వచ్చు": 370,
      "చెప్": 371,
      "ఉన్నాయి": 372,
      "en": 373,
      "స్ట్": 374,
      "ంచా": 375,
      "అవును": 376,
      "st": 377,
      "ఏద": 378,
      "కీ": 379,
      "టు": 380,
      "ూర్": 381,
      "ంటే": 382,
      "మార్": 383,
      "వచ్చి": 384,
      "రక": 385,
      "న్నారు": 386,
      "అక్కడ": 387,
      "జీ": 388,
      "టర్": 389,
      "మొ": 390,
      "లె": 391,
      "el": 392,
      "ol": 393,
      "జు": 394,
      "మంచి": 395,
      "నుండి": 396,
      "నిని": 397,
      "క్రి": 398,
      "స్తుంది": 399,
      "వెళ్ళి": 400,
      "om": 401,
      "th": 402,
      "మని": 403,
      "కుంటు": 404,
      "ష్ట": 405,
      "tion": 406,
      "గొన్న": 407,
      "దే": 408,
      "ధా": 409,
      "మర్": 410,
      "క్తి": 411,
      "్యా": 412,
      "00": 413,
      "ండా": 414,
      "జి": 415,
      "బె": 416,
      "వర": 417,
      "సర్": 418,
      "హే": 419,
      "పొంద": 420,
      "స్థా": 421,
      "అం": 422,
      "అవ": 423,
      "అని": 424,
      "తన": 425,
      "బు": 426,
      "వలం": 427,
      "క్కు": 428,
      "ing": 429,
      "బాగా": 430,
      "కేవలం": 431,
      "స్తున్నాను": 432,
      "ic": 433,
      "te": 434,
      "జ్": 435,
      "షి": 436,
      "న్ను": 437,
      "కొన్ని": 438,
      "ఉంటు": 439,
      "వచ్చింది": 440,
      "men": 441,
      "బర్": 442,
      "మూ": 443,
      "ప్ప": 444,
      "ట్లా": 445,
      "తుంది": 446,
      "మాట్లా": 447,
      "పేరు": 448,
      "ఉంటుంది": 449,
      "ంట్": 450,
      "కూ": 451,
      "టె": 452,
      "తే": 453,
      "దీ": 454,
      "య్య": 455,
      "వీ": 456,
      "లేదా": 457,
      "ైనా": 458,
      "ఏమిటి": 459,
      "తీసు": 460,
      "at": 461,
      "ck": 462,
      "ఓహ్": 463,
      "గం": 464,
      "చర్": 465,
      "పూర్": 466,
      "యన్": 467,
      "లని": 468,
      "వద్ద": 469,
      "ౌన్": 470,
      "ర్థ": 471,
      "కాల్": 472,
      "చేయు": 473,
      "త్ర": 474,
      "చ్చి": 475,
      "పొందు": 476,
      "భావి": 477,
      "వ్యక్తి": 478,
      "ఏదో": 479,
      "IN": 480,
      "ఆఫ్": 481,
      "ఉండ": 482,
      "ఎలా": 483,
      "గో": 484,
      "యూ": 485,
      "నిర్": 486,
      "చేసిన": 487,
      "ప్రతి": 488,
      "టానికి": 489,
      "తంగా": 490,
      "ఉంటే": 491,
      "ట్టు": 492,
      "ort": 493,
      "కుంటున్నా": 494,
      "ut": 495,
      "ంపు": 496,
      "ఎందుకు": 497,
      "డె": 498,
      "ధి": 499,
      "పయో": 500,
      "బో": 501,
      "లీ": 502,
      "షన్": 503,
      "సై": 504,
      "సరం": 505,
      "రికా": 506,
      "చేసి": 507,
      "త్రి": 508,
      "ద్దు": 509,
      "రోజు": 510,
      "పొందండి": 511,
      "an": 512,
      "fo": 513,
      "un": 514,
      "అప్": 515,
      "ఎం": 516,
      "కను": 517,
      "డే": 518,
      "ణం": 519,
      "పని": 520,
      "బడి": 521,
      "సీ": 522,
      "సో": 523,
      "సమా": 524,
      "విష": 525,
      "తెలి": 526,
      "మ్మ": 527,
      "ంచారు": 528,
      "పొందుటకు": 529,
      "పయోగి": 530,
      "Com": 531,
      "ON": 532,
      "al": 533,
      "as": 534,
      "ch": 535,
      "de": 536,
      "hort": 537,
      "us": 538,
      "కం": 539,
      "కమ్": 540,
      "ధ్య": 541,
      "నము": 542,
      "నన్ను": 543,
      "బం": 544,
      "వరి": 545,
      "శి": 546,
      "సే": 547,
      "నిజ": 548,
      "ంచడానికి": 549,
      "ముందు": 550,
      "గ్ర": 551,
      "కోరు": 552,
      "ప్పుడ": 553,
      "info": 554,
      "సమయం": 555,
      "అవసరం": 556,
      "ment": 557,
      "పూర్తి": 558,
      "of": 559,
      "కంటే": 560,
      "డీ": 561,
      "నె": 562,
      "రొ": 563,
      "వంటి": 564,
      "హె": 565,
      "ైన": 566,
      "ోన్": 567,
      "స్త": 568,
      "ంచే": 569,
      "ంచండి": 570,
      "ట్టి": 571,
      "ంటా": 572,
      "తిరిగి": 573,
      "అతనిని": 574,
      "వేచి": 575,
      "ఉంటా": 576,
      "క్కువ": 577,
      "Comment": 578,
      "ప్పుడూ": 579,
      "AN": 580,
      "ండు": 581,
      "ంలో": 582,
      "ఇష్ట": 583,
      "కె": 584,
      "కరి": 585,
      "ఖచ్చి": 586,
      "జె": 587,
      "జరిగి": 588,
      "డౌన్": 589,
      "దయ": 590,
      "దర్": 591,
      "ద్య": 592,
      "యవా": 593,
      "వది": 594,
      "వై": 595,
      "హు": 596,
      "స్ట": 597,
      "స్క్": 598,
      "దిగా": 599,
      "ప్రా": 600,
      "వారా": 601,
      "్యం": 602,
      "స్తున్న": 603,
      "ంచుము": 604,
      "క్షి": 605,
      "అనుకుంటున్నా": 606,
      "తెలుసా": 607,
      "మొద": 608,
      "దయచేసి": 609,
      "ab": 610,
      "name": 611,
      "ండ్": 612,
      "అప్పుడు": 613,
      "ఉండా": 614,
      "ఎవ": 615,
      "కర": 616,
      "జస్ట్": 617,
      "ఫై": 618,
      "రూ": 619,
      "రకు": 620,
      "వద్దు": 621,
      "‌ను": 622,
      "వాటి": 623,
      "పున": 624,
      "రాత్రి": 625,
      "కింగ్": 626,
      "గుర్": 627,
      "కొత్త": 628,
      "కొరకు": 629,
      "హార్": 630,
      "లెట్": 631,
      "the": 632,
      "మనిషి": 633,
      "ప్పటి": 634,
      "ING": 635,
      "ఖచ్చితంగా": 636,
      "col": 637,
      "is": 638,
      "le": 639,
      "lo": 640,
      "ంప": 641,
      "ంక్": 642,
      "ఇన్": 643,
      "ఎందు": 644,
      "ఓకే": 645,
      "టం": 646,
      "డబ్": 647,
      "నది": 648,
      "ఫా": 649,
      "ఫక్": 650,
      "యె": 651,
      "యత్": 652,
      "రై": 653,
      "శం": 654,
      "శీ": 655,
      "సూ": 656,
      "సహా": 657,
      "స్య": 658,
      "ర్డు": 659,
      "కున్నా": 660,
      "ంచడం": 661,
      "ట్లు": 662,
      "తున్నా": 663,
      "చేస్తుంది": 664,
      "చేస్తున్నాను": 665,
      "మాత్ర": 666,
      "ప్రయత్": 667,
      "మిస్": 668,
      "పాఠ": 669,
      "తోంది": 670,
      "జాక్": 671,
      "పోయా": 672,
      "స్తారు": 673,
      "స్తాయి": 674,
      "కూడా": 675,
      "ర్థం": 676,
      "చేయుము": 677,
      "తెలియ": 678,
      "color": 679,
      "ఎందుకంటే": 680,
      "ప్రయత్ని": 681,
      "IC": 682,
      "do": 683,
      "ec": 684,
      "ite": 685,
      "ఉత్త": 686,
      "కర్": 687,
      "దొ": 688,
      "పై": 689,
      "ఫి": 690,
      "బయ": 691,
      "బ్యా": 692,
      "బహు": 693,
      "మతి": 694,
      "వం": 695,
      "వత్": 696,
      "స్టా": 697,
      "క్ర": 698,
      "క్స్": 699,
      "మీకు": 700,
      "రింగ్": 701,
      "ప్లే": 702,
      "డిపి": 703,
      "వాలని": 704,
      "త్రా": 705,
      "ప్రో": 706,
      "ప్రస్తు": 707,
      "ద్ర": 708,
      "వున్న": 709,
      "దాలు": 710,
      "కొను": 711,
      "ంచుకో": 712,
      "పిల్ల": 713,
      "జాబి": 714,
      "స్తున్నారు": 715,
      "రెండు": 716,
      "సమస్య": 717,
      "చేయవచ్చు": 718,
      "చెప్పా": 719,
      "ఏదైనా": 720,
      "బర్ట్": 721,
      "తీసుకు": 722,
      "ఉంటాయి": 723,
      "సహాయం": 724,
      "మాత్రమే": 725,
      "డిపిఐ": 726,
      "ES": 727,
      "GR": 728,
      "OR": 729,
      "Short": 730,
      "ation": 731,
      "der": 732,
      "et": 733,
      "op": 734,
      "అలా": 735,
      "అంద": 736,
      "అంటే": 737,
      "ఇవ్": 738,
      "ఇప్పటి": 739,
      "ఉపయోగి": 740,
      "ఎల్ల": 741,
      "ఎవర": 742,
      "గే": 743,
      "దృ": 744,
      "దో": 745,
      "ధన్": 746,
      "పీ": 747,
      "భి": 748,
      "మో": 749,
      "మహి": 750,
      "మైన": 751,
      "వల": 752,
      "వస్తాయి": 753,
      "శు": 754,
      "షా": 755,
      "స్నే": 756,
      "ల్లి": 757,
      "వాస": 758,
      "విన": 759,
      "మారు": 760,
      "మాకు": 761,
      "లోకి": 762,
      "ప్రే": 763,
      "సంవత్": 764,
      "ద్దిగా": 765,
      "ద్వారా": 766,
      "డ్డా": 767,
      "అతని": 768,
      "కొద్దిగా": 769,
      "చూడా": 770,
      "బ్రే": 771,
      "తారు": 772,
      "పిక": 773,
      "టాప్": 774,
      "క్షణ": 775,
      "ష్టి": 776,
      "వ్వు": 777,
      "tit": 778,
      "పెద్ద": 779,
      "జీవి": 780,
      "వరకు": 781,
      "మాట్లాడు": 782,
      "విషయం": 783,
      "ంటారు": 784,
      "యవాదాలు": 785,
      "ఉండాలి": 786,
      "ఎవరు": 787,
      "వాటిని": 788,
      "డబ్బు": 789,
      "item": 790,
      "జాబితా": 791,
      "చెప్పారు": 792,
      "ధన్యవాదాలు": 793,
      "మహిళ": 794,
      "CH": 795,
      "CK": 796,
      "Ch": 797,
      "NT": 798,
      "US": 799,
      "UNT": 800,
      "ad": 801,
      "he": 802,
      "ro": 803,
      "sel": 804,
      "అమె": 805,
      "అమర్": 806,
      "అధ్య": 807,
      "అర్థం": 808,
      "ఆలో": 809,
      "ఇత": 810,
      "ఇంటి": 811,
      "ఎక్కడ": 812,
      "ధ్": 813,
      "నో": 814,
      "పట్ట": 815,
      "ఫోన్": 816,
      "బే": 817,
      "మన్": 818,
      "యే": 819,
      "లొ": 820,
      "సరి": 821,
      "ీమ్": 822,
      "ుడు": 823,
      "నిమి": 824,
      "లుగు": 825,
      "మును": 826,
      "ల్లో": 827,
      "వాడు": 828,
      "చేయా": 829,
      "చేశా": 830,
      "విధ": 831,
      "చిన్న": 832,
      "చివరి": 833,
      "యాలు": 834,
      "onder": 835,
      "పించు": 836,
      "పోయి": 837,
      "వ్యా": 838,
      "రకం": 839,
      "మర్చి": 840,
      "తీసుకో": 841,
      "సైన్": 842,
      "ఎంపిక": 843,
      "గుర్తు": 844,
      "బయటకు": 845,
      "దోష": 846,
      "చూడాలి": 847,
      "50": 848,
      "KCh": 849,
      "ay": 850,
      "blo": 851,
      "di": 852,
      "ode": 853,
      "ri": 854,
      "అమ్": 855,
      "అయ్య": 856,
      "ఆట": 857,
      "ఇం": 858,
      "ఉద్య": 859,
      "ఎక్కువ": 860,
      "ఏం": 861,
      "కల": 862,
      "కళ": 863,
      "కలు": 864,
      "గత": 865,
      "గల": 866,
      "గీ": 867,
      "చంప": 868,
      "తొ": 869,
      "థీమ్": 870,
      "దం": 871,
      "ఫె": 872,
      "బడ": 873,
      "బట్టి": 874,
      "మం": 875,
      "లై": 876,
      "లై": 877,
      "లతో": 878,
      "సరా": 879,
      "ులు": 880,
      "న్స్": 881,
      "స్వా": 882,
      "క్లి": 883,
      "డియో": 884,
      "డుగు": 885,
      "తులు": 886,
      "వాత": 887,
      "వాల్": 888,
      "లియా": 889,
      "విలు": 890,
      "విచా": 891,
      "ప్రజ": 892,
      "ద్ధ": 893,
      "గ్రా": 894,
      "దానిని": 895,
      "చ్చ": 896,
      "పాట": 897,
      "ంచిన": 898,
      "వెర్": 899,
      "రంగు": 900,
      "బ్ర": 901,
      "ంచుటకు": 902,
      "చాలు": 903,
      "బాయి": 904,
      "ళ్ళు": 905,
      "ers": 906,
      "భాగ": 907,
      "రణం": 908,
      "est": 909,
      "శాల": 910,
      "arsel": 911,
      "శ్వాస": 912,
      "చెప్ప": 913,
      "stat": 914,
      "icode": 915,
      "ఉండవచ్చు": 916,
      "నిర్వ": 917,
      "unicode": 918,
      "బడిన": 919,
      "నిజంగా": 920,
      "ఇష్టం": 921,
      "వదిలి": 922,
      "ప్రారం": 923,
      "కరమైన": 924,
      "మిస్టర్": 925,
      "ect": 926,
      "GRUNT": 927,
      "ఎల్లప్పుడూ": 928,
      "సంవత్సరా": 929,
      "అమెరికా": 930,
      "అధ్యక్ష": 931,
      "చేశారు": 932,
      "KCharsel": 933,
      "block": 934,
      "ఉద్యో": 935,
      "చంపడానికి": 936,
      "status": 937,
      "KCharselect": 938,
      "ET": 939,
      "LES": 940,
      "MAN": 941,
      "MUS": 942,
      "UCK": 943,
      "ac": 944,
      "ed": 945,
      "it": 946,
      "ide": 947,
      "pl": 948,
      "to": 949,
      "up": 950,
      "ంతి": 951,
      "అయి": 952,
      "అబ్": 953,
      "అన్నారు": 954,
      "అడుగు": 955,
      "ఆసి": 956,
      "ఆశ్": 957,
      "ఎప్పుడూ": 958,
      "ఏమీ": 959,
      "ఖా": 960,
      "గణ": 961,
      "గె": 962,
      "గర్": 963,
      "గమని": 964,
      "జూ": 965,
      "టీ": 966,
      "టే": 967,
      "తూ": 968,
      "తలు": 969,
      "తమైన": 970,
      "దూ": 971,
      "దె": 972,
      "దగ్": 973,
      "నలు": 974,
      "పట్టు": 975,
      "ఫకింగ్": 976,
      "బరు": 977,
      "భ్": 978,
      "మళ్ళ": 979,
      "రగ": 980,
      "వన్నా": 981,
      "వండి": 982,
      "సృ": 983,
      "ిక": 984,
      "నిద్ర": 985,
      "స్మ": 986,
      "స్కు": 987,
      "స్టి": 988,
      "స్తోంది": 989,
      "ర్య": 990,
      "కున్నారు": 991,
      "కుండా": 992,
      "ములు": 993,
      "ముగి": 994,
      "ల్స్": 995,
      "కారు": 996,
      "డుతుంది": 997,
      "తుపా": 998,
      "తున్నారు": 999,
      "వారి": 1000,
      "వాస్త": 1001,
      "లిం": 1002,
      "్యు": 1003,
      "్యూ": 1004,
      "లేక": 1005,
      "త్తి": 1006,
      "త్తం": 1007,
      "ప్రమా": 1008,
      "గిలి": 1009,
      "సింది": 1010,
      "వుపయోగి": 1011,
      "కోల్": 1012,
      "చ్ఛ": 1013,
      "పాటు": 1014,
      "అతనికి": 1015,
      "ంచింది": 1016,
      "చూసిన": 1017,
      "వెళ్": 1018,
      "రంగా": 1019,
      "ont": 1020,
      "సారి": 1021,
      "చారం": 1022,
      "వర్తన": 1023,
      "మార్గం": 1024,
      "కుంటున్నారు": 1025,
      "మూడు": 1026,
      "మాట్లాడ": 1027,
      "భావిస్తున్నాను": 1028,
      "సమాచారం": 1029,
      "ase": 1030,
      "రొక": 1031,
      "జరిగినది": 1032,
      "అనుకుంటున్నాను": 1033,
      "మొదటి": 1034,
      "ఫైలు": 1035,
      "దొరక": 1036,
      "బహుశా": 1037,
      "ఇప్పటికీ": 1038,
      "స్నేహి": 1039,
      "title": 1040,
      "జీవితం": 1041,
      "CHUCK": 1042,
      "అమర్చు": 1043,
      "పట్టీ": 1044,
      "అయ్యో": 1045,
      "విలువ": 1046,
      "వెర్రి": 1047,
      "బాయిలు": 1048,
      "నిర్వహి": 1049,
      "MUSIC": 1050,
      "అబ్బాయిలు": 1051,
      "ఆశ్చర్": 1052,
      "మళ్ళీ": 1053,
      "సృష్టి": 1054,
      "0x": 1055,
      "200": 1056,
      "72": 1057,
      ":%": 1058,
      "Ba": 1059,
      "DE": 1060,
      "DV": 1061,
      "Wonder": 1062,
      "\\\\": 1063,
      "em": 1064,
      "ling": 1065,
      "mon": 1066,
      "qu": 1067,
      "short": 1068,
      "ul": 1069,
      "ందా": 1070,
      "అడ": 1071,
      "అరు": 1072,
      "అర్": 1073,
      "అప్ర": 1074,
      "ఆహా": 1075,
      "ఎస్": 1076,
      "ఐరొ": 1077,
      "గర": 1078,
      "గంట": 1079,
      "చన": 1080,
      "చీ": 1081,
      "జే": 1082,
      "జర్": 1083,
      "తరు": 1084,
      "తక్కువ": 1085,
      "ధన": 1086,
      "నగ": 1087,
      "నని": 1088,
      "నపు": 1089,
      "పంచ": 1090,
      "పరీ": 1091,
      "బూ": 1092,
      "యలు": 1093,
      "రము": 1094,
      "రక్షి": 1095,
      "లకు": 1096,
      "వయ": 1097,
      "వో": 1098,
      "వడానికి": 1099,
      "వరణ": 1100,
      "హం": 1101,
      "ైంది": 1102,
      "‍క్": 1103,
      "రుగు": 1104,
      "రువు": 1105,
      "నిక": 1106,
      "నియం": 1107,
      "స్ప": 1108,
      "ర్లు": 1109,
      "కులు": 1110,
      "ప్రి": 1111,
      "ప్ట్": 1112,
      "ప్యా": 1113,
      "లుక్": 1114,
      "నేడు": 1115,
      "డిద": 1116,
      "డిత్": 1117,
      "ట్స్": 1118,
      "కాబట్టి": 1119,
      "వార్": 1120,
      "వాలి": 1121,
      "లియన్": 1122,
      "చేయి": 1123,
      "చేస్తా": 1124,
      "చేస్తున్నారు": 1125,
      "లేని": 1126,
      "విన్న": 1127,
      "విండ": 1128,
      "ప్రశ్": 1129,
      "ద్దా": 1130,
      "మరింత": 1131,
      "దాని": 1132,
      "దారి": 1133,
      "పాత": 1134,
      "న్నీ": 1135,
      "యానికి": 1136,
      "సుల": 1137,
      "కొన": 1138,
      "బ్రి": 1139,
      "one": 1140,
      "సారా": 1141,
      "చుట్ట": 1142,
      "చెయ్య": 1143,
      "కేజీ": 1144,
      "అనుమతి": 1145,
      "వ్ర": 1146,
      "వ్రా": 1147,
      "రెడీ": 1148,
      "స్థి": 1149,
      "పెట్ట": 1150,
      "ess": 1151,
      "ard": 1152,
      "పరిమా": 1153,
      "పరిష్": 1154,
      "చెప్పే": 1155,
      "మొత్తం": 1156,
      "క్రిప్ట్": 1157,
      "దేశం": 1158,
      "జిమ్": 1159,
      "స్థాయి": 1160,
      "స్థాపి": 1161,
      "menu": 1162,
      "టెక్": 1163,
      "కనుగొ": 1164,
      "జరిగింది": 1165,
      "అనుకుంటున్నారా": 1166,
      "మొదలు": 1167,
      "abel": 1168,
      "పునః": 1169,
      "హార్డ్": 1170,
      "సూచి": 1171,
      "ఫిక్": 1172,
      "ప్రస్తుత": 1173,
      "పిల్లలు": 1174,
      "ఇవ్వాలని": 1175,
      "ఎవరైనా": 1176,
      "వినండి": 1177,
      "దోషము": 1178,
      "ప్రజలు": 1179,
      "ప్రారంభి": 1180,
      "అధ్యక్షుడు": 1181,
      "ఆసియా": 1182,
      "దూరంగా": 1183,
      "CHUCKLES": 1184,
      "ఆశ్చర్యానికి": 1185,
      "DVD": 1186,
      "month": 1187,
      "అప్రమే": 1188,
      "ఐరొపా": 1189,
      "పరీక్ష": 1190,
      "ప్యాకేజీ": 1191,
      "చుట్టూ": 1192,
      "10": 1193,
      "HA": 1194,
      "In": 1195,
      "KDE": 1196,
      "LL": 1197,
      "LT": 1198,
      "Nation": 1199,
      "Th": 1200,
      "TOR": 1201,
      "bo": 1202,
      "ex": 1203,
      "fi": 1204,
      "ht": 1205,
      "ist": 1206,
      "label": 1207,
      "mb": 1208,
      "re": 1209,
      "wn": 1210,
      "అందు": 1211,
      "ఆల్": 1212,
      "ఆధా": 1213,
      "ఈజ్": 1214,
      "ఉన్న": 1215,
      "ఎల్": 1216,
      "ఎగు": 1217,
      "ఎంత": 1218,
      "ఒక్క": 1219,
      "కన్": 1220,
      "కమా": 1221,
      "కనీ": 1222,
      "కరణ": 1223,
      "కూర్": 1224,
      "కళ్ళు": 1225,
      "చనము": 1226,
      "జత": 1227,
      "జన్": 1228,
      "జరగ": 1229,
      "డై": 1230,
      "డొ": 1231,
      "డో": 1232,
      "డ్యూ": 1233,
      "తప్పు": 1234,
      "దని": 1235,
      "ధం": 1236,
      "నూ": 1237,
      "నొ": 1238,
      "నకు": 1239,
      "నందు": 1240,
      "నొక్క": 1241,
      "నప్పుడు": 1242,
      "నవ్వు": 1243,
      "నరకం": 1244,
      "పల": 1245,
      "పై": 1246,
      "పడ్డా": 1247,
      "బడుతుంది": 1248,
      "భు": 1249,
      "భూ": 1250,
      "మరొక": 1251,
      "లూ": 1252,
      "లము": 1253,
      "లగి": 1254,
      "వసి": 1255,
      "వడం": 1256,
      "వచనము": 1257,
      "శనం": 1258,
      "షం": 1259,
      "సర": 1260,
      "హత": 1261,
      "హ్యా": 1262,
      "హక్కు": 1263,
      "ాలు": 1264,
      "ృత": 1265,
      "నువ్వు": 1266,
      "రుష": 1267,
      "న్యా": 1268,
      "నిట్ట": 1269,
      "స్పే": 1270,
      "స్‍క్": 1271,
      "స్క్రిప్ట్": 1272,
      "క్టర్": 1273,
      "ర్చు": 1274,
      "ర్రీ": 1275,
      "కుడు": 1276,
      "కుటు": 1277,
      "కుమారు": 1278,
      "నాన్": 1279,
      "నాలుగు": 1280,
      "నాశనం": 1281,
      "ప్ల": 1282,
      "ంచవచ్చు": 1283,
      "డిచి": 1284,
      "డించి": 1285,
      "డిస్కు": 1286,
      "దులు": 1287,
      "ట్ర": 1288,
      "ట్‌": 1289,
      "ల్మె": 1290,
      "కాలను": 1291,
      "కాశం": 1292,
      "తున్న": 1293,
      "వానికి": 1294,
      "వావ్": 1295,
      "చేతి": 1296,
      "చేస్తున్న": 1297,
      "పుని": 1298,
      "పురుష": 1299,
      "గాడ్డా": 1300,
      "గాడిద": 1301,
      "విశ్": 1302,
      "త్తు": 1303,
      "త్రణ": 1304,
      "చిత్": 1305,
      "యింట్": 1306,
      "ప్రదర్": 1307,
      "ప్రపంచ": 1308,
      "గిన": 1309,
      "సంస్థ": 1310,
      "సంబం": 1311,
      "గుడ్": 1312,
      "వుని": 1313,
      "మిలియన్": 1314,
      "దారు": 1315,
      "పాడించి": 1316,
      "కొని": 1317,
      "వెల్": 1318,
      "బ్బ": 1319,
      "ong": 1320,
      "వేశ": 1321,
      "వేర్": 1322,
      "క్షమి": 1323,
      "అనువర్తన": 1324,
      "జాగ్ర": 1325,
      "ఫ్లా": 1326,
      "స్తున్నారా": 1327,
      "ఉన్నాను": 1328,
      "ండె": 1329,
      "బిట్": 1330,
      "తీవ్ర": 1331,
      "వెళ్ళండి": 1332,
      "పెన్": 1333,
      "art": 1334,
      "ary": 1335,
      "చేయడం": 1336,
      "స్ట్రీ": 1337,
      "stone": 1338,
      "ూర్పుని": 1339,
      "మార్పు": 1340,
      "రకము": 1341,
      "రకమైన": 1342,
      "జుడిత్": 1343,
      "వెళ్ళిపో": 1344,
      "ష్టం": 1345,
      "దేవుని": 1346,
      "ధానం": 1347,
      "జిన్": 1348,
      "బెల్": 1349,
      "అవకాశం": 1350,
      "tex": 1351,
      "జ్ఞ": 1352,
      "దీన్ని": 1353,
      "నిర్ధా": 1354,
      "utt": 1355,
      "డెస్క్": 1356,
      "డెస్‍క్": 1357,
      "రికార్డు": 1358,
      "బడింది": 1359,
      "బంతి": 1360,
      "నిజమైన": 1361,
      "కోరుకుంటున్నారు": 1362,
      "ంచేందుకు": 1363,
      "జెక్": 1364,
      "వైపు": 1365,
      "కున్నాడు": 1366,
      "పోయాను": 1367,
      "పోయారు": 1368,
      "తెలియని": 1369,
      "ఉత్తమ": 1370,
      "బ్యాక్": 1371,
      "త్రాలు": 1372,
      "ప్రోజెక్": 1373,
      "ప్రస్తుతం": 1374,
      "ShortName": 1375,
      "వలసిన": 1376,
      "ప్రేమి": 1377,
      "అతనితో": 1378,
      "బ్రేక్": 1379,
      "మాట్లాడుతూ": 1380,
      "ఆలోచి": 1381,
      "ఇతర": 1382,
      "నిమిషా": 1383,
      "పోయింది": 1384,
      "dian": 1385,
      "కళా": 1386,
      "తొలగి": 1387,
      "క్లిక్": 1388,
      "విచార": 1389,
      "సంవత్సరాల": 1390,
      "ఉద్యోగం": 1391,
      "స్టియన్": 1392,
      "ప్రమాద": 1393,
      "స్నేహితు": 1394,
      "Wonderstone": 1395,
      "అరుపు": 1396,
      "తరువాత": 1397,
      "నియంత్రణ": 1398,
      "విండో": 1399,
      "కొనసా": 1400,
      "పరిమాణం": 1401,
      "చెప్పేవాడు": 1402,
      "అప్రమేయ": 1403,
      "Indian": 1404,
      "National": 1405,
      "box": 1406,
      "అందుబా": 1407,
      "నిట్టూర్పుని": 1408,
      "కుటుం": 1409,
      "కుమారుడు": 1410,
      "గాడ్డామ్": 1411,
      "జాగ్రత్త": 1412,
      "'%": 1413,
      "18": 1414,
      "CA": 1415,
      "CR": 1416,
      "Cop": 1417,
      "ER": 1418,
      "Font": 1419,
      "GET": 1420,
      "IM": 1421,
      "OF": 1422,
      "QShort": 1423,
      "St": 1424,
      "SIM": 1425,
      "TH": 1426,
      "VIC": 1427,
      "Wh": 1428,
      "con": 1429,
      "com": 1430,
      "cut": 1431,
      "cri": 1432,
      "card": 1433,
      "ghe": 1434,
      "gro": 1435,
      "iz": 1436,
      "no": 1437,
      "ra": 1438,
      "sh": 1439,
      "sy": 1440,
      "ug": 1441,
      "uck": 1442,
      "wide": 1443,
      "అద": 1444,
      "అభ": 1445,
      "అస": 1446,
      "అనే": 1447,
      "అచే": 1448,
      "అంత": 1449,
      "ఆక": 1450,
      "ఆస": 1451,
      "ఆర్": 1452,
      "ఆగా": 1453,
      "ఇలా": 1454,
      "ఉత్": 1455,
      "ఉద్ద": 1456,
      "ఊహి": 1457,
      "ఎక్": 1458,
      "ఎదు": 1459,
      "ఎలి": 1460,
      "ఎంచు": 1461,
      "ఐస్": 1462,
      "ఐదు": 1463,
      "ఒంటి": 1464,
      "కౌ": 1465,
      "చం": 1466,
      "చని": 1467,
      "చ్యు": 1468,
      "జన": 1469,
      "జరి": 1470,
      "టన": 1471,
      "టొ": 1472,
      "టన్": 1473,
      "టల్": 1474,
      "టై": 1475,
      "టలో": 1476,
      "టరీ": 1477,
      "డర్": 1478,
      "తల": 1479,
      "తర్": 1480,
      "తప్ప": 1481,
      "తల్లి": 1482,
      "థి": 1483,
      "దగిన": 1484,
      "నల్": 1485,
      "నడు": 1486,
      "నై": 1487,
      "నమ్మ": 1488,
      "పం": 1489,
      "పర్": 1490,
      "పడి": 1491,
      "పదా": 1492,
      "పంద": 1493,
      "పైన": 1494,
      "పత్తి": 1495,
      "ఫై": 1496,
      "ఫన్నీ": 1497,
      "బీ": 1498,
      "బొ": 1499,
      "మధ్య": 1500,
      "యమైన": 1501,
      "రండి": 1502,
      "లప": 1503,
      "ళీ": 1504,
      "వని": 1505,
      "వలె": 1506,
      "శ్యం": 1507,
      "సొ": 1508,
      "హీ": 1509,
      "హో": 1510,
      "హలో": 1511,
      "ెం": 1512,
      "ౌండ్": 1513,
      "‍స్": 1514,
      "రుగా": 1515,
      "న్యూ": 1516,
      "నింగ్": 1517,
      "స్సు": 1518,
      "ర్స్": 1519,
      "ర్డ్": 1520,
      "ర్షి": 1521,
      "దిగు": 1522,
      "రిక": 1523,
      "రిగా": 1524,
      "రియా": 1525,
      "రియన్": 1526,
      "కునే": 1527,
      "ప్య": 1528,
      "ప్పి": 1529,
      "ప్యూ": 1530,
      "ంచబడిన": 1531,
      "డిగ్": 1532,
      "ట్రా": 1533,
      "ముఖ": 1534,
      "ముందుకు": 1535,
      "ల్ని": 1536,
      "కాల": 1537,
      "కాలు": 1538,
      "కాలేదు": 1539,
      "కార్డు": 1540,
      "వాగ్": 1541,
      "లించ": 1542,
      "లింగ్": 1543,
      "చేత": 1544,
      "లేడీ": 1545,
      "విని": 1546,
      "విస్": 1547,
      "విరిగి": 1548,
      "వివరణ": 1549,
      "మాన": 1550,
      "మాన్": 1551,
      "మాయి": 1552,
      "ఒకటి": 1553,
      "కిచ": 1554,
      "చిహ్": 1555,
      "చిత్ర": 1556,
      "యిన్": 1557,
      "ప్రయా": 1558,
      "ప్రవేశ": 1559,
      "సందర్": 1560,
      "గుతుంది": 1561,
      "టిన్": 1562,
      "సివే": 1563,
      "సిఫిక్": 1564,
      "వుంది": 1565,
      "డ్రి": 1566,
      "డ్రా": 1567,
      "డ్రై": 1568,
      "మిగిలి": 1569,
      "కోడ్": 1570,
      "కోవడానికి": 1571,
      "దాపు": 1572,
      "దానం": 1573,
      "దాదాపు": 1574,
      "పార": 1575,
      "పాలు": 1576,
      "అతన్ని": 1577,
      "సుకున్నారు": 1578,
      "కొంత": 1579,
      "తెర": 1580,
      "చూపు": 1581,
      "చూపించు": 1582,
      "బ్‌": 1583,
      "మెర్రీ": 1584,
      "సాఫ్": 1585,
      "బార్": 1586,
      "వేయ": 1587,
      "చెయ": 1588,
      "చెల్లి": 1589,
      "క్షణం": 1590,
      "అనుకు": 1591,
      "అనుకూ": 1592,
      "అనుకున్నా": 1593,
      "పోలీ": 1594,
      "చూడటానికి": 1595,
      "era": 1596,
      "కలిసి": 1597,
      "tic": 1598,
      "ఉన్నారు": 1599,
      "రెండ": 1600,
      "ండర్": 1601,
      "భార్య": 1602,
      "గొప్ప": 1603,
      "తీయ": 1604,
      "పెసిఫిక్": 1605,
      "escri": 1606,
      "యోగ": 1607,
      "ంటిల్మె": 1608,
      "పరిగణ": 1609,
      "సెల్": 1610,
      "సెషన్": 1611,
      "చేయండి": 1612,
      "ల్లీ": 1613,
      "చెప్పి": 1614,
      "ంచాలి": 1615,
      "కీలు": 1616,
      "టును": 1617,
      "టులో": 1618,
      "మార్చు": 1619,
      "ell": 1620,
      "క్రింది": 1621,
      "క్రియా": 1622,
      "క్రిస్మ": 1623,
      "ome": 1624,
      "వరగా": 1625,
      "స్థానం": 1626,
      "అంతా": 1627,
      "బర్నింగ్": 1628,
      "కూడ": 1629,
      "తేదీ": 1630,
      "దీనిని": 1631,
      "వీలు": 1632,
      "చర్చ": 1633,
      "భావించడం": 1634,
      "భావిస్తున్నారా": 1635,
      "ఆఫ్రికా": 1636,
      "గోలు": 1637,
      "సైమన్": 1638,
      "చేసింది": 1639,
      "unch": 1640,
      "కనుక": 1641,
      "విషయాలు": 1642,
      "తెలిసిన": 1643,
      "మ్మల్ని": 1644,
      "కంప్యూ": 1645,
      "పూర్తిగా": 1646,
      "స్తూ": 1647,
      "ఉంటాం": 1648,
      "కరించారు": 1649,
      "కరించడానికి": 1650,
      "స్టీ": 1651,
      "స్టే": 1652,
      "క్షిణ": 1653,
      "ఫైళ్ళ": 1654,
      "పునరా": 1655,
      "శీర్షి": 1656,
      "పాఠశాల": 1657,
      "తెలియదు": 1658,
      "ప్రయత్నించండి": 1659,
      "doc": 1660,
      "కొనుగోలు": 1661,
      "తీసుకున్న": 1662,
      "option": 1663,
      "అందమైన": 1664,
      "అందంగా": 1665,
      "ఇవ్వండి": 1666,
      "శుభ్": 1667,
      "ఆలోచన": 1668,
      "చేయాలి": 1669,
      "విధమైన": 1670,
      "వ్యాపార": 1671,
      "మర్చిపో": 1672,
      "గుర్తుంచుకో": 1673,
      "అమ్మాయి": 1674,
      "కలుసుకున్నారు": 1675,
      "లైన్": 1676,
      "చెప్పటానికి": 1677,
      "GRUNTS": 1678,
      "GRUNTING": 1679,
      "tool": 1680,
      "అయితే": 1681,
      "ఖాళీ": 1682,
      "టేక్": 1683,
      "దెబ్బ": 1684,
      "దగ్గర": 1685,
      "పట్టుకో": 1686,
      "వాస్తవానికి": 1687,
      "మాట్లాడటం": 1688,
      "దొరకలేదు": 1689,
      "Baghe": 1690,
      "అడగ": 1691,
      "వార్తలు": 1692,
      "సులభ": 1693,
      "వ్రాయ": 1694,
      "స్థితి": 1695,
      "కూర్చు": 1696,
      "న్యాయవా": 1697,
      "స్పేడ్": 1698,
      "ప్లగ్": 1699,
      "డిస్కును": 1700,
      "text": 1701,
      "జ్ఞా": 1702,
      "నిర్ధారి": 1703,
      "ప్రోజెక్టును": 1704,
      "అరుపులతో": 1705,
      "అందుబాటులో": 1706,
      "జాగ్రత్తగా": 1707,
      "Coptic": 1708,
      "QShortcut": 1709,
      "SIMON": 1710,
      "VICTOR": 1711,
      "అదనపు": 1712,
      "అచేతన": 1713,
      "ఆసక్తి": 1714,
      "ఉద్దే": 1715,
      "వాగ్దానం": 1716,
      "సాఫ్ట్": 1717,
      "అనుకున్నాను": 1718,
      "పోలీసు": 1719,
      "ంటిల్మెన్": 1720,
      "క్రిస్మస్": 1721,
      "కంప్యూటర్": 1722,
      "Bagheera": 1723,
      "'-": 1724,
      "11": 1725,
      "15": 1726,
      "16": 1727,
      "1200": 1728,
      "2color": 1729,
      "30": 1730,
      "3color": 1731,
      "49": 1732,
      "60": 1733,
      "AD": 1734,
      "ALL": 1735,
      "CD": 1736,
      "DO": 1737,
      "Dat": 1738,
      "Day": 1739,
      "EH": 1740,
      "Gen": 1741,
      "HI": 1742,
      "HT": 1743,
      "Long": 1744,
      "ME": 1745,
      "Mi": 1746,
      "OD": 1747,
      "QFont": 1748,
      "Rest": 1749,
      "Riz": 1750,
      "TON": 1751,
      "Tet": 1752,
      "Un": 1753,
      "WE": 1754,
      "be": 1755,
      "by": 1756,
      "butt": 1757,
      "bug": 1758,
      "dic": 1759,
      "day": 1760,
      "ee": 1761,
      "eck": 1762,
      "fol": 1763,
      "ie": 1764,
      "il": 1765,
      "im": 1766,
      "kday": 1767,
      "lin": 1768,
      "lat": 1769,
      "list": 1770,
      "oo": 1771,
      "os": 1772,
      "ption": 1773,
      "pro": 1774,
      "res": 1775,
      "ric": 1776,
      "se": 1777,
      "so": 1778,
      "tr": 1779,
      "ust": 1780,
      "ver": 1781,
      "wh": 1782,
      "war": 1783,
      "wonder": 1784,
      "wee": 1785,
      "ంతు": 1786,
      "ంగి": 1787,
      "ంబ్": 1788,
      "ంబరు": 1789,
      "అన": 1790,
      "అమ": 1791,
      "అంచ": 1792,
      "అంది": 1793,
      "అల్": 1794,
      "అంట": 1795,
      "అద్": 1796,
      "అడ్": 1797,
      "అక్ష": 1798,
      "అదే": 1799,
      "అమూ": 1800,
      "అదృ": 1801,
      "అంటారు": 1802,
      "అధ్": 1803,
      "ఆప": 1804,
      "ఆయ": 1805,
      "ఆస్ట్": 1806,
      "ఆడియో": 1807,
      "ఉప": 1808,
      "ఉంచండి": 1809,
      "ఉంచేందుకు": 1810,
      "ఎడ": 1811,
      "ఎన్": 1812,
      "ఎర్": 1813,
      "ఎన్ను": 1814,
      "ఎక్స్": 1815,
      "ఏర్": 1816,
      "ఐఎస్": 1817,
      "ఒంట": 1818,
      "ఓవర్": 1819,
      "ఓపెన్": 1820,
      "కని": 1821,
      "కండి": 1822,
      "కటన": 1823,
      "గతం": 1824,
      "గస్థ": 1825,
      "జో": 1826,
      "జబె": 1827,
      "టై": 1828,
      "డౌ": 1829,
      "డవి": 1830,
      "డై": 1831,
      "ణు": 1832,
      "తర": 1833,
      "తను": 1834,
      "దస్": 1835,
      "దము": 1836,
      "దక్షిణ": 1837,
      "ధనం": 1838,
      "ధరించి": 1839,
      "నై": 1840,
      "నవీ": 1841,
      "నృత": 1842,
      "పరు": 1843,
      "పట్టి": 1844,
      "పచ్చ": 1845,
      "పకాలను": 1846,
      "ఫల": 1847,
      "ఫో": 1848,
      "బల": 1849,
      "బై": 1850,
      "భయ": 1851,
      "మన": 1852,
      "మల": 1853,
      "మను": 1854,
      "మరు": 1855,
      "మందు": 1856,
      "మంచు": 1857,
      "మనం": 1858,
      "మరణ": 1859,
      "మద్ద": 1860,
      "మరణం": 1861,
      "మ్యు": 1862,
      "మైంది": 1863,
      "మమ్మల్ని": 1864,
      "యర్": 1865,
      "రమ": 1866,
      "రష": 1867,
      "రహ": 1868,
      "రబ్": 1869,
      "రక్షణ": 1870,
      "లలో": 1871,
      "ళు": 1872,
      "వృ": 1873,
      "వై": 1874,
      "వొ": 1875,
      "వరు": 1876,
      "వల్": 1877,
      "వదులు": 1878,
      "శో": 1879,
      "శము": 1880,
      "శత్": 1881,
      "షూ": 1882,
      "షె": 1883,
      "సగం": 1884,
      "సవరి": 1885,
      "సబ్‌": 1886,
      "నుQ": 1887,
      "నుక": 1888,
      "రుచి": 1889,
      "న్రీ": 1890,
      "నిలి": 1891,
      "నిజా": 1892,
      "నివసి": 1893,
      "స్వ": 1894,
      "స్ప్": 1895,
      "స్లో": 1896,
      "స్యం": 1897,
      "స్మార్": 1898,
      "స్తే": 1899,
      "స్లీ": 1900,
      "క్సీ": 1901,
      "ర్క్": 1902,
      "ర్ట్": 1903,
      "ర్ధన": 1904,
      "దిశ": 1905,
      "దిరి": 1906,
      "రికి": 1907,
      "రిడ్": 1908,
      "కుల్": 1909,
      "కున్న": 1910,
      "కుంటారు": 1911,
      "నాన్ని": 1912,
      "ప్టె": 1913,
      "లుగా": 1914,
      "నేట్": 1915,
      "నేరుగా": 1916,
      "ంచె": 1917,
      "ంచ్": 1918,
      "డికి": 1919,
      "డియా": 1920,
      "దుస్తు": 1921,
      "ట్ల": 1922,
      "ముంద": 1923,
      "ములను": 1924,
      "ముఖ్య": 1925,
      "ముద్ర": 1926,
      "ల్‌": 1927,
      "ల్లు": 1928,
      "ల్మన్": 1929,
      "ల్యమైన": 1930,
      "కార": 1931,
      "కాగా": 1932,
      "కాగి": 1933,
      "కాలం": 1934,
      "కావచ్చు": 1935,
      "కారణం": 1936,
      "కావలసిన": 1937,
      "తుకు": 1938,
      "వాలు": 1939,
      "వాట్": 1940,
      "వారం": 1941,
      "్యంత": 1942,
      "చేరు": 1943,
      "చేసు": 1944,
      "చేసే": 1945,
      "చేస్తారు": 1946,
      "చేతులు": 1947,
      "చేర్చు": 1948,
      "పుస్త": 1949,
      "గాస్": 1950,
      "లేషన్": 1951,
      "విభ": 1952,
      "విరా": 1953,
      "వింత": 1954,
      "విఫల": 1955,
      "మానా": 1956,
      "మానం": 1957,
      "న్నారా": 1958,
      "ఒకసారి": 1959,
      "త్తా": 1960,
      "త్వరగా": 1961,
      "రాక్": 1962,
      "రాలు": 1963,
      "కిల్": 1964,
      "లోడు": 1965,
      "లోపల": 1966,
      "చింది": 1967,
      "చింతి": 1968,
      "తింపు": 1969,
      "యిల్": 1970,
      "యిస్తుంది": 1971,
      "లాగ": 1972,
      "లాస్": 1973,
      "లాక్": 1974,
      "ప్రకటన": 1975,
      "సందే": 1976,
      "సంగీ": 1977,
      "గుస": 1978,
      "టింగ్": 1979,
      "సిస్ట": 1980,
      "సిద్ధ": 1981,
      "సిమ్యు": 1982,
      "ద్వే": 1983,
      "వులు": 1984,
      "వుంటు": 1985,
      "వుంచుము": 1986,
      "మిషన్": 1987,
      "గ్ని": 1988,
      "గ్గా": 1989,
      "మేజి": 1990,
      "దాడి": 1991,
      "దావా": 1992,
      "దాయు": 1993,
      "పాల": 1994,
      "పాస్": 1995,
      "న్నంగా": 1996,
      "అత్యంత": 1997,
      "యానుQ": 1998,
      "తెలీ": 1999,
      "తెరువు": 2000,
      "వెళు": 2001,
      "వెనుక": 2002,
      "వెతుకు": 2003,
      "రంగస్థ": 2004,
      "తాను": 2005,
      "తాయి": 2006,
      "ones": 2007,
      "మెయిన్": 2008,
      "ళ్లు": 2009,
      "ళ్లి": 2010,
      "సార్లు": 2011,
      "సాల్మన్": 2012,
      "పిస్తుంది": 2013,
      "బాధి": 2014,
      "బాస్టియన్": 2015,
      "వేలం": 2016,
      "వేగాస్": 2017,
      "యంత్రాలు": 2018,
      "చెత్త": 2019,
      "టార్": 2020,
      "కేం": 2021,
      "కేక": 2022,
      "పొయానుQ": 2023,
      "అనువది": 2024,
      "అనుసరి": 2025,
      "అనుభూ": 2026,
      "జాయే": 2027,
      "ందని": 2028,
      "పోరా": 2029,
      "పోస్ట్": 2030,
      "హాని": 2031,
      "రీక": 2032,
      "ere": 2033,
      "ery": 2034,
      "orb": 2035,
      "ord": 2036,
      "ఫ్రా": 2037,
      "tip": 2038,
      "రెలియా": 2039,
      "పేందుకు": 2040,
      "భాగం": 2041,
      "బిజీ": 2042,
      "బిల్లీ": 2043,
      "తీసివే": 2044,
      "పెట్టు": 2045,
      "వర్త": 2046,
      "వర్చ్యు": 2047,
      "esul": 2048,
      "సమూ": 2049,
      "శాన్ని": 2050,
      "పరికర": 2051,
      "సరేనా": 2052,
      "సెర్": 2053,
      "సెకన్": 2054,
      "చేయదగిన": 2055,
      "చెప్తున్నా": 2056,
      "కీలను": 2057,
      "మార్క్": 2058,
      "అక్కడే": 2059,
      "క్రితం": 2060,
      "ther": 2061,
      "tionary": 2062,
      "ధాలు": 2063,
      "పొందడానికి": 2064,
      "స్థానము": 2065,
      "స్థానిక": 2066,
      "అంగ": 2067,
      "షిట్": 2068,
      "మాట్లాడే": 2069,
      "దీని": 2070,
      "వీడియో": 2071,
      "వీక్షణం": 2072,
      "చర్య": 2073,
      "ౌన్సర్": 2074,
      "ర్థిక": 2075,
      "చేయుట": 2076,
      "చేయుటకు": 2077,
      "ఉండండి": 2078,
      "యూజర్": 2079,
      "చేసినప్పుడు": 2080,
      "utdo": 2081,
      "రోజుల": 2082,
      "and": 2083,
      "ఎంబి": 2084,
      "సమాధానం": 2085,
      "మ్మదిగా": 2086,
      "all": 2087,
      "cho": 2088,
      "check": 2089,
      "శిశు": 2090,
      "శిక్షణ": 2091,
      "గ్రహి": 2092,
      "కోరుకుంటున్నా": 2093,
      "కోరుకున్నాడు": 2094,
      "కోరుకుంటారు": 2095,
      "సమయంలో": 2096,
      "నెట్": 2097,
      "నెమ్మదిగా": 2098,
      "హెల్": 2099,
      "హెచ్చ": 2100,
      "హెన్రీ": 2101,
      "తిరిగివుంచుము": 2102,
      "ANS": 2103,
      "ANTON": 2104,
      "ఇష్టపడ్డా": 2105,
      "జెంటిల్మెన్": 2106,
      "హుహ్": 2107,
      "abase": 2108,
      "ఎవరో": 2109,
      "గుర్తింపు": 2110,
      "హార్లే": 2111,
      "యెర్": 2112,
      "రైట్": 2113,
      "శీల": 2114,
      "తున్నాను": 2115,
      "పాఠ్య": 2116,
      "ఉత్తర": 2117,
      "పైకి": 2118,
      "బహుళ": 2119,
      "వంతంగా": 2120,
      "రింగ్స్": 2121,
      "త్రాన్ని": 2122,
      "కొనుము": 2123,
      "ంచుకోండి": 2124,
      "తీసుకుని": 2125,
      "తీసుకురా": 2126,
      "ఎవరూ": 2127,
      "దృష్టి": 2128,
      "స్నేక్": 2129,
      "వినడానికి": 2130,
      "ప్రేమ": 2131,
      "బ్రేవో": 2132,
      "ఇంటికి": 2133,
      "బేబ్": 2134,
      "సరిగ్గా": 2135,
      "పోయిన": 2136,
      "మర్చిపోయారు": 2137,
      "తీసుకోవాలని": 2138,
      "ఎంపికచేసిన": 2139,
      "దోషం": 2140,
      "ఇంజిన్": 2141,
      "కలవారు": 2142,
      "గ్రామ్": 2143,
      "రంగులు": 2144,
      "భాగస్వా": 2145,
      "action": 2146,
      "గెట్స్": 2147,
      "గమనిక": 2148,
      "జూలియా": 2149,
      "దగ్గు": 2150,
      "నలుపు": 2151,
      "ముగింపు": 2152,
      "ముగిసింది": 2153,
      "తుపాకీ": 2154,
      "తుపాకులు": 2155,
      "కోల్పో": 2156,
      "చ్ఛిక": 2157,
      "మాట్లాడటానికి": 2158,
      "సృష్టించుటకు": 2159,
      "ఆహార": 2160,
      "గంటల": 2161,
      "నగరం": 2162,
      "వయస్సు": 2163,
      "స్పష్ట": 2164,
      "చేస్తాను": 2165,
      "ద్దాం": 2166,
      "ద్దామని": 2167,
      "పెట్టే": 2168,
      "పరిష్కరించడానికి": 2169,
      "జిమ్మీ": 2170,
      "స్థాపించుము": 2171,
      "టెక్చర్": 2172,
      "exam": 2173,
      "fig": 2174,
      "ఆధార": 2175,
      "ఒక్కరూ": 2176,
      "కమాండర్": 2177,
      "కనీసం": 2178,
      "నొప్పి": 2179,
      "నొక్కి": 2180,
      "భుతమైన": 2181,
      "పురుషులు": 2182,
      "చిత్రం": 2183,
      "ప్రదర్శి": 2184,
      "సంబంధం": 2185,
      "క్షమించండి": 2186,
      "అనువర్తనము": 2187,
      "తీవ్రమైన": 2188,
      "స్ట్రీట్": 2189,
      "వెళ్ళిపోతున్నాను": 2190,
      "ప్రేమిస్తున్న": 2191,
      "ఆలోచిస్తూ": 2192,
      "ప్రమాదంలో": 2193,
      "స్నేహితుడు": 2194,
      "కొనసాగుతుంది": 2195,
      "కుటుంబం": 2196,
      "OFF": 2197,
      "shutdo": 2198,
      "అభ్య": 2199,
      "అనేక": 2200,
      "ఆగారు": 2201,
      "ఉత్పత్తి": 2202,
      "ఎదురు": 2203,
      "ఎలిజబె": 2204,
      "కౌట్": 2205,
      "చంపేందుకు": 2206,
      "జరిమానా": 2207,
      "తర్వాత": 2208,
      "పందెం": 2209,
      "ఫైన్": 2210,
      "ముఖం": 2211,
      "వినియోగ": 2212,
      "విరిగిన": 2213,
      "చిహ్నము": 2214,
      "డ్రాప్": 2215,
      "డ్రైవర్": 2216,
      "రెండవ": 2217,
      "escription": 2218,
      "కూడదు": 2219,
      "స్టేషన్": 2220,
      "శీర్షిక": 2221,
      "గుర్తుంచుకోవాలి": 2222,
      "tooltip": 2223,
      "దగ్గరగా": 2224,
      "సులభంగా": 2225,
      "కూర్చుని": 2226,
      "న్యాయవాది": 2227,
      "ప్లగ్ఇన్": 2228,
      "జ్ఞాపకాలను": 2229,
      "ఉద్దేశ్యం": 2230,
      "Database": 2231,
      "DayName": 2232,
      "Gener": 2233,
      "MiB": 2234,
      "QFontDatabase": 2235,
      "Restart": 2236,
      "button": 2237,
      "dictionary": 2238,
      "foldoc": 2239,
      "listbox": 2240,
      "rich": 2241,
      "weekday": 2242,
      "అనౌన్సర్": 2243,
      "అమలు": 2244,
      "అంచనా": 2245,
      "అంటోన్": 2246,
      "అద్భుతమైన": 2247,
      "అమూల్యమైన": 2248,
      "ఆయన": 2249,
      "ఆస్ట్రెలియా": 2250,
      "ఎడమ": 2251,
      "ఒంటరిగా": 2252,
      "కనిపిస్తుంది": 2253,
      "డవిడే": 2254,
      "మరణి": 2255,
      "వొక": 2256,
      "శత్రువు": 2257,
      "షూట్": 2258,
      "నిలిపి": 2259,
      "నిజానికి": 2260,
      "స్ప్రింగ్": 2261,
      "స్లీప్": 2262,
      "ముందస్తు": 2263,
      "కాగితం": 2264,
      "విఫలమైంది": 2265,
      "సిమ్యులేషన్": 2266,
      "ద్వేషం": 2267,
      "వుంటుంది": 2268,
      "తెలీదు": 2269,
      "అనువదించు": 2270,
      "అనుభూతి": 2271,
      "బిజీగా": 2272,
      "వర్చ్యువల్": 2273,
      "esult": 2274,
      "చెప్తున్నావు": 2275,
      "శిశువు": 2276,
      "ఇష్టపడ్డారు": 2277,
      "shutdown": 2278,
      "ఎలిజబెత్": 2279,
      "\"%": 2280,
      ")%": 2281,
      ").": 2282,
      ",%": 2283,
      ",.": 2284,
      "-(": 2285,
      "//": 2286,
      "0l": 2287,
      "12": 2288,
      "13": 2289,
      "14": 2290,
      "100": 2291,
      "24": 2292,
      "300": 2293,
      "45": 2294,
      "47": 2295,
      "600": 2296,
      "747": 2297,
      "80": 2298,
      "88": 2299,
      "800": 2300,
      "90": 2301,
      "900": 2302,
      "==": 2303,
      "=\\\\": 2304,
      "@}": 2305,
      "AS": 2306,
      "Al": 2307,
      "ACK": 2308,
      "AKCharselect": 2309,
      "BR": 2310,
      "Bal": 2311,
      "Bus": 2312,
      "BCR": 2313,
      "CJ": 2314,
      "Cont": 2315,
      "Ctr": 2316,
      "Description": 2317,
      "EE": 2318,
      "EN": 2319,
      "FL": 2320,
      "Fi": 2321,
      "GL": 2322,
      "Game": 2323,
      "Gre": 2324,
      "H9": 2325,
      "IR": 2326,
      "IS": 2327,
      "IZ": 2328,
      "Jo": 2329,
      "Kh": 2330,
      "LA": 2331,
      "LE": 2332,
      "La": 2333,
      "Li": 2334,
      "LING": 2335,
      "LIZ": 2336,
      "ML": 2337,
      "Mm": 2338,
      "Mr": 2339,
      "Mom": 2340,
      "Mul": 2341,
      "NO": 2342,
      "No": 2343,
      "OANS": 2344,
      "PA": 2345,
      "Qu": 2346,
      "RI": 2347,
      "Rem": 2348,
      "Ros": 2349,
      "Sp": 2350,
      "Sort": 2351,
      "Set": 2352,
      "SCR": 2353,
      "Sorb": 2354,
      "TR": 2355,
      "TS": 2356,
      "TV": 2357,
      "The": 2358,
      "UH": 2359,
      "UP": 2360,
      "URI": 2361,
      "VO": 2362,
      "Vi": 2363,
      "WM": 2364,
      "Wor": 2365,
      "WHA": 2366,
      "Well": 2367,
      "]:": 2368,
      "_R": 2369,
      "ag": 2370,
      "ah": 2371,
      "ap": 2372,
      "av": 2373,
      "ain": 2374,
      "bar": 2375,
      "bra": 2376,
      "cess": 2377,
      "clat": 2378,
      "dri": 2379,
      "dwide": 2380,
      "eh": 2381,
      "ep": 2382,
      "ein": 2383,
      "fa": 2384,
      "for": 2385,
      "fuck": 2386,
      "gl": 2387,
      "gin": 2388,
      "gones": 2389,
      "id": 2390,
      "ir": 2391,
      "ion": 2392,
      "ka": 2393,
      "kno": 2394,
      "ldwide": 2395,
      "ml": 2396,
      "ne": 2397,
      "ning": 2398,
      "nit": 2399,
      "ost": 2400,
      "ote": 2401,
      "other": 2402,
      "ps": 2403,
      "per": 2404,
      "pal": 2405,
      "ple": 2406,
      "pers": 2407,
      "rr": 2408,
      "rol": 2409,
      "ran": 2410,
      "sp": 2411,
      "ser": 2412,
      "sof": 2413,
      "squ": 2414,
      "some": 2415,
      "scho": 2416,
      "tp": 2417,
      "ty": 2418,
      "ting": 2419,
      "tas": 2420,
      "ters": 2421,
      "ur": 2422,
      "ution": 2423,
      "umb": 2424,
      "ww": 2425,
      "wling": 2426,
      "{@}": 2427,
      "ంగు": 2428,
      "ంకే": 2429,
      "ంగిలి": 2430,
      "అబ": 2431,
      "అరి": 2432,
      "అతి": 2433,
      "అవ్": 2434,
      "అందుకు": 2435,
      "అర్థ": 2436,
      "అమ్మ": 2437,
      "అంటా": 2438,
      "అక్ర": 2439,
      "అభి": 2440,
      "అణు": 2441,
      "అగ్ని": 2442,
      "ఆడ": 2443,
      "ఆన": 2444,
      "ఆల": 2445,
      "ఆరు": 2446,
      "ఆలి": 2447,
      "ఆపు": 2448,
      "ఆయు": 2449,
      "ఆగి": 2450,
      "ఆసు": 2451,
      "ఆకలి": 2452,
      "ఆరో": 2453,
      "ఆహ్": 2454,
      "ఆకర్": 2455,
      "ఆటిన్": 2456,
      "ఇటీ": 2457,
      "ఈల": 2458,
      "ఉద": 2459,
      "ఉంచ": 2460,
      "ఉచి": 2461,
      "ఉపా": 2462,
      "ఉమ్మ": 2463,
      "ఉంచడం": 2464,
      "ఉచ్ఛ": 2465,
      "ఉందని": 2466,
      "ఎక్క": 2467,
      "ఎడ్": 2468,
      "ఎండ": 2469,
      "ఎలుగు": 2470,
      "ఏను": 2471,
      "ఏది": 2472,
      "ఐటి": 2473,
      "ఐచ్ఛిక": 2474,
      "ఓర్": 2475,
      "ఔట్ట": 2476,
      "కదు": 2477,
      "కల్": 2478,
      "కన్నా": 2479,
      "కరం": 2480,
      "కబ్": 2481,
      "కName": 2482,
      "కవర్": 2483,
      "కంగా": 2484,
      "కముందు": 2485,
      "కష్టం": 2486,
      "ఖీ": 2487,
      "ఖో": 2488,
      "గూ": 2489,
      "గౌ": 2490,
      "గది": 2491,
      "ఘన": 2492,
      "ఘా": 2493,
      "ఘ్": 2494,
      "చొ": 2495,
      "చండి": 2496,
      "చట్ట": 2497,
      "చంపు": 2498,
      "జరు": 2499,
      "జయం": 2500,
      "జట్టు": 2501,
      "జరుగు": 2502,
      "జంతు": 2503,
      "టో": 2504,
      "టకాలు": 2505,
      "డటానికి": 2506,
      "ణాలు": 2507,
      "ణయిస్తుంది": 2508,
      "తప": 2509,
      "తని": 2510,
      "తదు": 2511,
      "తకా": 2512,
      "తమా": 2513,
      "తయా": 2514,
      "త్యా": 2515,
      "త్యం": 2516,
      "థా": 2517,
      "థె": 2518,
      "దల": 2519,
      "దడు": 2520,
      "దత్తా": 2521,
      "ధీ": 2522,
      "ధవంతంగా": 2523,
      "నటి": 2524,
      "నడానికి": 2525,
      "నమూ": 2526,
      "నచ్చి": 2527,
      "నమో": 2528,
      "నడిచి": 2529,
      "పడ": 2530,
      "పౌ": 2531,
      "పది": 2532,
      "పడు": 2533,
      "పడా": 2534,
      "పక్ష": 2535,
      "పనం": 2536,
      "పవచ్చు": 2537,
      "పంపు": 2538,
      "పత్రి": 2539,
      "పదర్": 2540,
      "పంప": 2541,
      "పంక్": 2542,
      "పడుతుంది": 2543,
      "ఫే": 2544,
      "ఫొ": 2545,
      "ఫన్": 2546,
      "బృ": 2547,
      "బై": 2548,
      "బన్": 2549,
      "బంటి": 2550,
      "భవ": 2551,
      "భవి": 2552,
      "భయం": 2553,
      "భంలో": 2554,
      "మౌ": 2555,
      "మంచ": 2556,
      "మదర్": 2557,
      "మద్య": 2558,
      "యీ": 2559,
      "యము": 2560,
      "యల్": 2561,
      "రత": 2562,
      "రై": 2563,
      "రన్": 2564,
      "రస్": 2565,
      "రర్": 2566,
      "రల్": 2567,
      "రమా": 2568,
      "రదృ": 2569,
      "రౌండ్": 2570,
      "లక": 2571,
      "లత": 2572,
      "లగా": 2573,
      "లవు": 2574,
      "లహా": 2575,
      "లక్షణ": 2576,
      "లజాబితా": 2577,
      "ళా": 2578,
      "వన": 2579,
      "వలి": 2580,
      "వంట": 2581,
      "వస్తుంది": 2582,
      "వటానికి": 2583,
      "వస్తున్న": 2584,
      "వటం": 2585,
      "శన": 2586,
      "శై": 2587,
      "శక్తి": 2588,
      "శనము": 2589,
      "షీ": 2590,
      "షంలో": 2591,
      "సై": 2592,
      "సన్": 2593,
      "సటి": 2594,
      "సమ్": 2595,
      "సత్యం": 2596,
      "సలహా": 2597,
      "హణ": 2598,
      "హొ": 2599,
      "హము": 2600,
      "హ్య": 2601,
      "హంత": 2602,
      "ారణ": 2603,
      "ిన్న": 2604,
      "ించు": 2605,
      "ుడి": 2606,
      "ృతి": 2607,
      "ృతీ": 2608,
      "ెన్": 2609,
      "ేజ": 2610,
      "‌టె": 2611,
      "‌గ్ర": 2612,
      "‌చేయుము": 2613,
      "‌నందు": 2614,
      "‍వేర్": 2615,
      "రువ": 2616,
      "రునా": 2617,
      "నియ": 2618,
      "నిక్": 2619,
      "నిరా": 2620,
      "నియు": 2621,
      "నిష్": 2622,
      "నిరో": 2623,
      "నిన్ను": 2624,
      "నియన్": 2625,
      "నిలప": 2626,
      "స్‌": 2627,
      "స్కా": 2628,
      "స్పా": 2629,
      "స్టర్": 2630,
      "స్పీ": 2631,
      "స్లై": 2632,
      "స్వయ": 2633,
      "స్కౌట్": 2634,
      "క్ల": 2635,
      "క్ట్": 2636,
      "క్రా": 2637,
      "క్రీ": 2638,
      "క్రె": 2639,
      "క్యూ": 2640,
      "క్టొ": 2641,
      "క్టరీ": 2642,
      "ర్ఘ": 2643,
      "ర్మి": 2644,
      "ర్మ్": 2645,
      "ర్Name": 2646,
      "ర్గత": 2647,
      "ర్ధవంతంగా": 2648,
      "దిక": 2649,
      "మీతో": 2650,
      "మీరే": 2651,
      "రిస్తున్నాను": 2652,
      "రిసై": 2653,
      "రింగి": 2654,
      "కుల": 2655,
      "కుర్": 2656,
      "కుంది": 2657,
      "నామ": 2658,
      "నాయ": 2659,
      "నార్": 2660,
      "నాతో": 2661,
      "నాలను": 2662,
      "ప్టి": 2663,
      "ప్పించు": 2664,
      "మీరుగొన్న": 2665,
      "లుడు": 2666,
      "లుName": 2667,
      "లుKCharselect": 2668,
      "నేల": 2669,
      "నేందుకు": 2670,
      "ంచబ": 2671,
      "ంచబడ": 2672,
      "ంచబడుతుంది": 2673,
      "ంచబడింది": 2674,
      "ంచకండి": 2675,
      "డిఈ": 2676,
      "డిని": 2677,
      "డిగా": 2678,
      "ట్రం": 2679,
      "ట్జ్": 2680,
      "ముల": 2681,
      "ముసి": 2682,
      "ముComment": 2683,
      "ముపై": 2684,
      "ల్యు": 2685,
      "ల్డ్": 2686,
      "ల్సిన": 2687,
      "ల్టర్": 2688,
      "ల్డర్": 2689,
      "కాంక్": 2690,
      "కార్య": 2691,
      "కాయలు": 2692,
      "కాదని": 2693,
      "కాంబ్": 2694,
      "కార్ట్": 2695,
      "కాకముందు": 2696,
      "డుకునే": 2697,
      "డు88": 2698,
      "తువు": 2699,
      "తుల్లో": 2700,
      "వాన్": 2701,
      "వాయి": 2702,
      "వాకింగ్": 2703,
      "వాస్క్రిప్ట్": 2704,
      "వాన్నంగా": 2705,
      "లియో": 2706,
      "లింట్": 2707,
      "లిచింది": 2708,
      "్యన్": 2709,
      "చేసా": 2710,
      "చేస్తున్నా": 2711,
      "పుట": 2712,
      "పులకు": 2713,
      "గాన్": 2714,
      "గాలు": 2715,
      "లేత": 2716,
      "లేము": 2717,
      "లేడ్": 2718,
      "లేకుండా": 2719,
      "లేనని": 2720,
      "ంటర్": 2721,
      "ంటల్": 2722,
      "విదే": 2723,
      "విద్య": 2724,
      "విక్ర": 2725,
      "విచ్ఛ": 2726,
      "విజన్": 2727,
      "విక్టర్": 2728,
      "విడిచి": 2729,
      "విధానం": 2730,
      "విజయం": 2731,
      "మాలు": 2732,
      "మామా": 2733,
      "మాయా": 2734,
      "న్నాడు": 2735,
      "ఒకే": 2736,
      "ఒకరు": 2737,
      "త్రో": 2738,
      "త్డే": 2739,
      "ైన": 2740,
      "రాన్ని": 2741,
      "రాజు": 2742,
      "రాబో": 2743,
      "లోడ్": 2744,
      "చికా": 2745,
      "చిత్రాలు": 2746,
      "చిరునా": 2747,
      "తిక": 2748,
      "యిస్": 2749,
      "యిక్కడ": 2750,
      "యిప్పటి": 2751,
      "లాన్ని": 2752,
      "లాఫ్": 2753,
      "లార్డ్": 2754,
      "లాటిన్": 2755,
      "ప్రణ": 2756,
      "ప్రె": 2757,
      "ప్రచు": 2758,
      "ప్రభా": 2759,
      "ప్రభావి": 2760,
      "ప్రవర్తన": 2761,
      "గిటార్": 2762,
      "సంత": 2763,
      "సంభ": 2764,
      "సంతా": 2765,
      "సంతో": 2766,
      "సంకే": 2767,
      "గుండె": 2768,
      "గుళా": 2769,
      "టికా": 2770,
      "టికన్నా": 2771,
      "సిలాస్": 2772,
      "డారు": 2773,
      "డాటా": 2774,
      "ద్ది": 2775,
      "ద్రం": 2776,
      "వుడ్": 2777,
      "వుంటే": 2778,
      "వుపదర్": 2779,
      "డ్స్": 2780,
      "డ్రై": 2781,
      "డ్డు88": 2782,
      "మిత": 2783,
      "మిది": 2784,
      "మించారు": 2785,
      "గ్రే": 2786,
      "కోర్": 2787,
      "కోరి": 2788,
      "కోలేదు": 2789,
      "కోణం": 2790,
      "దాగా": 2791,
      "దాన్ని": 2792,
      "పాప్": 2793,
      "పాడు": 2794,
      "పాత్": 2795,
      "పాయింట్": 2796,
      "మరియుమీరు": 2797,
      "యాల్": 2798,
      "యార్క్": 2799,
      "సురక్షి": 2800,
      "సుకొని": 2801,
      "కొరియా": 2802,
      "ంచినది": 2803,
      "తెల్ల": 2804,
      "తెలప": 2805,
      "తెడ్డు88": 2806,
      "మ్ము": 2807,
      "మ్మిది": 2808,
      "చూస్తున్నా": 2809,
      "చూస్తారు": 2810,
      "చూసింది": 2811,
      "చూసుకొని": 2812,
      "వెయి": 2813,
      "వెడె": 2814,
      "వెంటా": 2815,
      "వెరర్": 2816,
      "రంధ్": 2817,
      "బ్రా": 2818,
      "బ్లో": 2819,
      "బ్రె": 2820,
      "బ్లాక్": 2821,
      "తాడు": 2822,
      "తానని": 2823,
      "onne": 2824,
      "మెత్త": 2825,
      "మెంట్": 2826,
      "మెనూ": 2827,
      "మెదడు": 2828,
      "సార": 2829,
      "సాధా": 2830,
      "సాధి": 2831,
      "సాలీ": 2832,
      "సారూ": 2833,
      "సాధనం": 2834,
      "సాయెర్": 2835,
      "సాంకే": 2836,
      "ంచుట": 2837,
      "పిచ్చి": 2838,
      "పించడానికి": 2839,
      "పిరికి": 2840,
      "indo": 2841,
      "inmenu": 2842,
      "inlistbox": 2843,
      "చారి": 2844,
      "బాల్": 2845,
      "బాగు": 2846,
      "బాబ్": 2847,
      "బాధ్య": 2848,
      "బాస్టర్": 2849,
      "బాలుడు": 2850,
      "రేడియో": 2851,
      "వేరే": 2852,
      "వేరొక": 2853,
      "వేదిక": 2854,
      "నీస్": 2855,
      "మైక్": 2856,
      "మైంది": 2857,
      "చెక్": 2858,
      "చెడు": 2859,
      "చెప్పు": 2860,
      "చెబు": 2861,
      "చెవులు": 2862,
      "టాయి": 2863,
      "టాగ్": 2864,
      "టాస్కు": 2865,
      "ఇక్కడే": 2866,
      "క్ష్యం": 2867,
      "కేటాయి": 2868,
      "తండ్రి": 2869,
      "పొడ": 2870,
      "పొడి": 2871,
      "పొంది": 2872,
      "అనుకొను": 2873,
      "అనుకుంటున్నారు": 2874,
      "జాప్": 2875,
      "జావాస్క్రిప్ట్": 2876,
      "ందం": 2877,
      "ందే": 2878,
      "ందో": 2879,
      "పోతుంది": 2880,
      "పోయే": 2881,
      "హాంక్": 2882,
      "హార్థిక": 2883,
      "నంత": 2884,
      "రీన్": 2885,
      "రీక్": 2886,
      "రీగా": 2887,
      "రీఫ్": 2888,
      "ట్టీ": 2889,
      "చూడలేదు": 2890,
      "చూడడానికి": 2891,
      "చూడటం": 2892,
      "కలిసే": 2893,
      "ఫ్రె": 2894,
      "ఫ్లింట్": 2895,
      "ఫ్రీక్": 2896,
      "స్తున్నాయి": 2897,
      "రోల్": 2898,
      "రోడ్": 2899,
      "ఉన్నాము": 2900,
      "ఉన్నాడు": 2901,
      "రెస్": 2902,
      "రెంట్": 2903,
      "రెక్టరీ": 2904,
      "పేజీ": 2905,
      "భారీగా": 2906,
      "కానీమీ": 2907,
      "కానీమేము": 2908,
      "బి5": 2909,
      "ఖ్యా": 2910,
      "వెళ్ళు": 2911,
      "వెళ్ళే": 2912,
      "వెళ్ళడానికి": 2913,
      "వెళ్ళడం": 2914,
      "పెన్నీ": 2915,
      "పెయింట్": 2916,
      "పెళ్లి": 2917,
      "లంగా": 2918,
      "వర్తి": 2919,
      "వర్షన్": 2920,
      "హిప్": 2921,
      "రించిన": 2922,
      "వ్యవ": 2923,
      "వ్యక్": 2924,
      "కుడివైపు": 2925,
      "తెలుసుకో": 2926,
      "తెలుసుకోవడానికి": 2927,
      "అవుట్": 2928,
      "సమర్ధవంతంగా": 2929,
      "త్తమ": 2930,
      "శాంతి": 2931,
      "arv": 2932,
      "arch": 2933,
      "పరిస్థితి": 2934,
      "పరికరం": 2935,
      "సెట్": 2936,
      "సెక్స్": 2937,
      "సెప్టె": 2938,
      "సెబాస్టియన్": 2939,
      "చేయబో": 2940,
      "చేయబడింది": 2941,
      "శ్రీ": 2942,
      "స్తాను": 2943,
      "ల్లర్": 2944,
      "ంచాను": 2945,
      "ంచాలా": 2946,
      "ంచాలక": 2947,
      "stem": 2948,
      "కీబో": 2949,
      "టునై": 2950,
      "మార్వుడ్": 2951,
      "రకమును": 2952,
      "జీవ": 2953,
      "జీరో": 2954,
      "లెస్": 2955,
      "లెగ్": 2956,
      "elt": 2957,
      "ely": 2958,
      "elling": 2959,
      "olin": 2960,
      "olution": 2961,
      "క్రింద": 2962,
      "క్రిస్టియన్": 2963,
      "వెళ్ళిపోయా": 2964,
      "thing": 2965,
      "దేని": 2966,
      "ధార": 2967,
      "్యాలు": 2968,
      "్యాలి": 2969,
      "000": 2970,
      "జించవచ్చు": 2971,
      "బెటర్": 2972,
      "బెదిరి": 2973,
      "బెట్టీ": 2974,
      "సర్వర్": 2975,
      "అండ్": 2976,
      "అంబర్": 2977,
      "అంగీ": 2978,
      "అంగుళా": 2979,
      "బుల్": 2980,
      "బుకుల్": 2981,
      "ick": 2982,
      "icName": 2983,
      "ication": 2984,
      "షించింది": 2985,
      "కొన్నిసార్లు": 2986,
      "బర్త్డే": 2987,
      "మూల": 2988,
      "మూలం": 2989,
      "టెర్మి": 2990,
      "టెల్లర్": 2991,
      "తేనె": 2992,
      "దీనికి": 2993,
      "య్యి": 2994,
      "చర్యలు": 2995,
      "కాల్టన్": 2996,
      "పొందుతారు": 2997,
      "భావించాను": 2998,
      "INT": 2999,
      "ఆఫ్లైన్": 3000,
      "ఉండే": 3001,
      "ఉండకూడదు": 3002,
      "గోప్య": 3003,
      "యూదా": 3004,
      "యూజ్": 3005,
      "నిర్ణయిస్తుంది": 3006,
      "డెల్": 3007,
      "డెడ్": 3008,
      "ధించు": 3009,
      "సైనిక": 3010,
      "ans": 3011,
      "ఎంComment": 3012,
      "పనిము": 3013,
      "సీన్": 3014,
      "సోద": 3015,
      "విషయ": 3016,
      "user": 3017,
      "కంపనం": 3018,
      "బంధి": 3019,
      "సేవ్": 3020,
      "నిజం": 3021,
      "గ్రహం": 3022,
      "నెల": 3023,
      "ఇష్టమైన": 3024,
      "కెడిఈ": 3025,
      "కరించ": 3026,
      "జెర్": 3027,
      "వైన": 3028,
      "వైట్": 3029,
      "స్క్రీన్": 3030,
      "స్క్యూజ్": 3031,
      "వారాల": 3032,
      "ండ్‌": 3033,
      "ఉండాలని": 3034,
      "పునరు": 3035,
      "ispers": 3036,
      "low": 3037,
      "ఇన్స్టా": 3038,
      "డబ్ల్యు": 3039,
      "ఫార్": 3040,
      "ఫాబ్రి": 3041,
      "యెంచు": 3042,
      "శీఘ్": 3043,
      "సూది": 3044,
      "సూచన": 3045,
      "తున్నారా": 3046,
      "తున్నారో": 3047,
      "చేస్తుందిName": 3048,
      "పాఠం": 3049,
      "పాఠ్యాలు": 3050,
      "తెలియజే": 3051,
      "ప్రయత్నిస్తున్న": 3052,
      "ప్రయత్నిస్తున్నారు": 3053,
      "ప్రయత్నిస్తాను": 3054,
      "ఉత్తేజ": 3055,
      "కర్రి": 3056,
      "కర్లు": 3057,
      "కర్సర్": 3058,
      "దొంగిలి": 3059,
      "ఫిన్": 3060,
      "బయట": 3061,
      "స్టాక్": 3062,
      "స్టార్మ్": 3063,
      "క్రవారం": 3064,
      "త్రాలను": 3065,
      "ప్రోసె": 3066,
      "ప్రోక్సీ": 3067,
      "ప్రోగ్రామ్": 3068,
      "ంచుకోను": 3069,
      "GROANS": 3070,
      "ette": 3071,
      "అలారం": 3072,
      "అలాగే": 3073,
      "ఉపయోగిస్తారు": 3074,
      "ఎల్లెన్": 3075,
      "పీరియన్": 3076,
      "వలన": 3077,
      "వలసి": 3078,
      "శుక్రవారం": 3079,
      "సంవత్సరం": 3080,
      "titran": 3081,
      "పెద్దది": 3082,
      "జీవించి": 3083,
      "మాట్లాడుతున్నారు": 3084,
      "మాట్లాడుతున్నారా": 3085,
      "CHING": 3086,
      "heh": 3087,
      "ఇతను": 3088,
      "నోటీ": 3089,
      "పట్టణం": 3090,
      "బేస్": 3091,
      "చేయాలను": 3092,
      "చేయాలని": 3093,
      "విధం": 3094,
      "చివరికి": 3095,
      "వ్యాఖ్యా": 3096,
      "మర్చిపోయాను": 3097,
      "తీసుకోండి": 3098,
      "ఎంపికైంది": 3099,
      "అమ్మే": 3100,
      "అమ్మారు": 3101,
      "ఆటName": 3102,
      "ఇంజ": 3103,
      "ఇంకా": 3104,
      "ఎక్కువగా": 3105,
      "కలలు": 3106,
      "కలుపుట": 3107,
      "తొమ్మిది": 3108,
      "థీమ్‌ను": 3109,
      "ఫెన్": 3110,
      "ఫెర్": 3111,
      "బడలేదు": 3112,
      "లైన్": 3113,
      "లైబ్ర": 3114,
      "స్వాగతం": 3115,
      "విచారిస్తున్నాను": 3116,
      "ద్ధమైన": 3117,
      "పాటలజాబితా": 3118,
      "ంచినట్లు": 3119,
      "బ్రౌ": 3120,
      "బ్రతకా": 3121,
      "భాగమైన": 3122,
      "చెప్పండి": 3123,
      "ప్రారంభ": 3124,
      "సంవత్సరాలు": 3125,
      "ity": 3126,
      "ples": 3127,
      "plain": 3128,
      "plication": 3129,
      "గెట్": 3130,
      "గెలిచింది": 3131,
      "గర్వ": 3132,
      "జూదం": 3133,
      "భ్రమ": 3134,
      "స్మృతి": 3135,
      "లింగ": 3136,
      "లింకు": 3137,
      "లేకపో": 3138,
      "ప్రమాదం": 3139,
      "వుపయోగించుము": 3140,
      "వెళ్లే": 3141,
      "ఫైలును": 3142,
      "దొరకడం": 3143,
      "స్నేహితులు": 3144,
      "అమర్చుము": 3145,
      "నిర్వహించడానికి": 3146,
      "సృష్టించుము": 3147,
      "0x72": 3148,
      "Back": 3149,
      "ందాము": 3150,
      "అడవి": 3151,
      "అర్హత": 3152,
      "అర్బుకుల్": 3153,
      "ఆహారం": 3154,
      "చీఫ్": 3155,
      "జేబు": 3156,
      "బూమ్": 3157,
      "రమునకు": 3158,
      "రక్షించడానికి": 3159,
      "రక్షించే": 3160,
      "ప్రింటర్": 3161,
      "చేస్తాము": 3162,
      "ప్రశ్న": 3163,
      "ప్రశ్ని": 3164,
      "ప్రశ్నలు": 3165,
      "చెయ్యి": 3166,
      "పెట్టండి": 3167,
      "పరిష్కార": 3168,
      "కనుగొంటారు": 3169,
      "కనుగొనేందుకు": 3170,
      "పునఃస్థాపించుము": 3171,
      "సూచిస్తున్నాయి": 3172,
      "ప్యాకేజీలు": 3173,
      "http": 3174,
      "mbol": 3175,
      "ఆల్ఫా": 3176,
      "ఉన్నప్పుడు": 3177,
      "ఎగురు": 3178,
      "ఎగుమతి": 3179,
      "ఒక్కరి": 3180,
      "కనీస": 3181,
      "జతచేయుము": 3182,
      "జన్యు": 3183,
      "డైరెక్టరీ": 3184,
      "డ్యూక్": 3185,
      "డ్యూల్": 3186,
      "నొక్కండి": 3187,
      "నవ్వుతో": 3188,
      "పడ్డాను": 3189,
      "లూయీ": 3190,
      "లూయిస్": 3191,
      "వచనమును": 3192,
      "సరదాగా": 3193,
      "హత్య": 3194,
      "హ్యారీ": 3195,
      "హ్యాపీ": 3196,
      "నాన్సీ": 3197,
      "ట్రస్ట్": 3198,
      "విశ్వసి": 3199,
      "చిత్రీక": 3200,
      "ప్రదర్శన": 3201,
      "ప్రపంచంలో": 3202,
      "మిలియన్ల": 3203,
      "ండెడ్": 3204,
      "artup": 3205,
      "మార్పులు": 3206,
      "బెల్వెడె": 3207,
      "బ్యాక్‌గ్ర": 3208,
      "ప్రేమిస్తున్నాను": 3209,
      "బ్రేక్లు": 3210,
      "నిమిషాల": 3211,
      "నిమిషాలు": 3212,
      "కళాశాల": 3213,
      "కళావరు": 3214,
      "తొలగింపు": 3215,
      "కొనసాగే": 3216,
      "కుటుంబ": 3217,
      "180": 3218,
      "180x": 3219,
      "CAR": 3220,
      "Startup": 3221,
      "What": 3222,
      "config": 3223,
      "group": 3224,
      "system": 3225,
      "symbol": 3226,
      "అసలు": 3227,
      "అంతర్గత": 3228,
      "ఆకట్టు": 3229,
      "ఆకృతీ": 3230,
      "ఆర్మ్": 3231,
      "ఊహించు": 3232,
      "ఎక్‍స్": 3233,
      "ఎక్స్క్యూజ్": 3234,
      "ఎంచుకొనుము": 3235,
      "చనిపోయిన": 3236,
      "చనిపోయే": 3237,
      "జనవరి": 3238,
      "జనరల్": 3239,
      "టైగర్": 3240,
      "తప్పక": 3241,
      "థింక్": 3242,
      "నడుపు": 3243,
      "నైల్స్": 3244,
      "నమ్మకం": 3245,
      "పంపించు": 3246,
      "పడింది": 3247,
      "పదాలను": 3248,
      "పదార్థం": 3249,
      "మధ్యలో": 3250,
      "సొంత": 3251,
      "హీన": 3252,
      "హోమ్": 3253,
      "న్యూయార్క్": 3254,
      "దిగువ": 3255,
      "దిగుమతి": 3256,
      "లేడీస్": 3257,
      "విస్కీ": 3258,
      "కిచకిచ": 3259,
      "చిత్రములను": 3260,
      "ప్రయాణ": 3261,
      "ప్రయాణం": 3262,
      "సందర్భంలో": 3263,
      "మిగిలిన": 3264,
      "చెయ్యాలి": 3265,
      "చెల్లించడానికి": 3266,
      "అనుకుంటే": 3267,
      "అనుకుందాము": 3268,
      "అనుకూలంగా": 3269,
      "తీయటానికి": 3270,
      "సెషన్‌ను": 3271,
      "మార్చుముComment": 3272,
      "క్రిందికి": 3273,
      "క్రియాశీల": 3274,
      "చర్చలు": 3275,
      "స్టీవ్": 3276,
      "స్టీఫెన్": 3277,
      "ఫైళ్ళను": 3278,
      "శుభ్రం": 3279,
      "మర్చిపోతే": 3280,
      "దెబ్బతి": 3281,
      "అడగండి": 3282,
      "అడగవద్దు": 3283,
      "వ్రాయడం": 3284,
      "అచేతనము": 3285,
      "అచేతనమైన": 3286,
      "సాఫ్ట్‍వేర్": 3287,
      "1200x": 3288,
      "DOOR": 3289,
      "HTML": 3290,
      "LongDayName": 3291,
      "ODBCR": 3292,
      "bygones": 3293,
      "resolution": 3294,
      "search": 3295,
      "warning": 3296,
      "wondering": 3297,
      "అడ్డ": 3298,
      "అక్షర": 3299,
      "అదృష్టం": 3300,
      "అధ్వాన్నంగా": 3301,
      "ఆడియోపుస్త": 3302,
      "ఎర్ల్": 3303,
      "ఎక్స్పీరియన్": 3304,
      "ఏర్పాటు": 3305,
      "టైప్": 3306,
      "తరలి": 3307,
      "దస్త్రాన్ని": 3308,
      "నవీకరి": 3309,
      "నృత్యం": 3310,
      "పరుచు": 3311,
      "పట్టింది": 3312,
      "బలమైన": 3313,
      "భయపడ్డాను": 3314,
      "మరుసటి": 3315,
      "మందులు": 3316,
      "మద్దతు": 3317,
      "రష్యన్": 3318,
      "రబ్బరు": 3319,
      "శోధి": 3320,
      "సవరించు": 3321,
      "సబ్‌టైప్": 3322,
      "స్వలింగ": 3323,
      "స్యంగా": 3324,
      "స్మార్ట్": 3325,
      "రిడ్జ్": 3326,
      "దుస్తులను": 3327,
      "ల్‌బ్యాక్": 3328,
      "విభజించవచ్చు": 3329,
      "విరామం": 3330,
      "చింతించకండి": 3331,
      "ప్రకటనలను": 3332,
      "సందేశాన్ని": 3333,
      "సంగీతం": 3334,
      "సిస్టమ్": 3335,
      "సిద్ధంగా": 3336,
      "మేజిక్": 3337,
      "దాయుము": 3338,
      "వెళుతున్న": 3339,
      "వెనుకభాగం": 3340,
      "రంగస్థల": 3341,
      "బాధించింది": 3342,
      "కేంద్రం": 3343,
      "పొయానుQODBCR": 3344,
      "అనుసరించండి": 3345,
      "పోరాడటానికి": 3346,
      "ordad": 3347,
      "ఫ్రాంక్": 3348,
      "పెట్టుబడి": 3349,
      "సమూహము": 3350,
      "సెర్వర్": 3351,
      "సెకన్లు": 3352,
      "అంగస్": 3353,
      "కోరుకుంటున్నాము": 3354,
      "నెట్వర్": 3355,
      "హెచ్చరిక": 3356,
      "పాఠ్యము": 3357,
      "తీసుకురాలేక": 3358,
      "రంగులుpal": 3359,
      "భాగస్వామి": 3360,
      "దగ్గుకు": 3361,
      "కోల్పోతారు": 3362,
      "స్పష్టంగా": 3363,
      "టెక్చర్స్": 3364,
      "examples": 3365,
      "అభ్యర్ధన": 3366,
      "శీర్షికపట్టీ": 3367,
      "GenericName": 3368,
      "మరణిస్తారు": 3369,
      "నిలిపివేయ": 3370,
      "అనువదించుQu": 3371,
      "7477": 3372,
      "=\\\\\\\\": 3373,
      "Baloo": 3374,
      "CJK": 3375,
      "Control": 3376,
      "Ctrl": 3377,
      "EECHING": 3378,
      "FLINT": 3379,
      "Greely": 3380,
      "Joes": 3381,
      "Khordad": 3382,
      "Mmm": 3383,
      "Multitran": 3384,
      "Not": 3385,
      "Remote": 3386,
      "Rosie": 3387,
      "Spelling": 3388,
      "Setting": 3389,
      "SCREECHING": 3390,
      "Sorbonne": 3391,
      "TVON": 3392,
      "Vika": 3393,
      "Worldwide": 3394,
      "application": 3395,
      "clatters": 3396,
      "known": 3397,
      "otherfuck": 3398,
      "server": 3399,
      "schoolin": 3400,
      "task": 3401,
      "అక్రమ": 3402,
      "ఆకర్షించింది": 3403,
      "ఆటిన్ల్": 3404,
      "ఇటీవలి": 3405,
      "ఉదయం": 3406,
      "ఉచిత": 3407,
      "ఉపాయాలు": 3408,
      "ఉచ్ఛారణ": 3409,
      "ఎలుగుబంటి": 3410,
      "ఏనుగు": 3411,
      "కదుపు": 3412,
      "గూఢ": 3413,
      "గౌర": 3414,
      "చంపుతానని": 3415,
      "తపదము": 3416,
      "తనిఖీ": 3417,
      "తదుపరి": 3418,
      "తమాషా": 3419,
      "దత్తాం": 3420,
      "నమూనా": 3421,
      "నమోద": 3422,
      "పక్షులు": 3423,
      "భవనం": 3424,
      "మౌస్": 3425,
      "మంచం": 3426,
      "వస్తున్నట్లు": 3427,
      "శైలి": 3428,
      "సమ్మె": 3429,
      "సత్యంకు": 3430,
      "ిన్నం": 3431,
      "‌టెండెడ్": 3432,
      "నిరాకరించారు": 3433,
      "నిలపడానికి": 3434,
      "స్పానిష్": 3435,
      "స్వయంచాలక": 3436,
      "క్రీమ్": 3437,
      "రిసైటల్": 3438,
      "రింగింగ్": 3439,
      "మీరుగొన్నఏమిటి": 3440,
      "ట్రంక్": 3441,
      "కాంక్వెరర్": 3442,
      "కాంబ్స్": 3443,
      "విదేశీ": 3444,
      "విద్యు": 3445,
      "విక్రయి": 3446,
      "విచ్ఛిన్నం": 3447,
      "రాబోయే": 3448,
      "చిరునామా": 3449,
      "యిప్పటికే": 3450,
      "ప్రచురణ": 3451,
      "ప్రభావితం": 3452,
      "సంతానం": 3453,
      "సంతోష": 3454,
      "సంకేతపదము": 3455,
      "వుపదర్శనము": 3456,
      "పాయింట్లు": 3457,
      "తెలపండి": 3458,
      "తెడ్డు88కు": 3459,
      "చూస్తున్నానని": 3460,
      "వెంటాడుకునే": 3461,
      "రంధ్రాలు": 3462,
      "బ్రెండా": 3463,
      "సాధారణ": 3464,
      "సారూప్య": 3465,
      "సాంకేతిక": 3466,
      "indow": 3467,
      "బాస్టర్డ్": 3468,
      "సెప్టెంబరు": 3469,
      "చేయబోతున్నారో": 3470,
      "కీబోర్డు": 3471,
      "టునైట్": 3472,
      "వెళ్ళిపోయాడు": 3473,
      "అంగుళాల": 3474,
      "గోప్యతా": 3475,
      "ఇన్స్టాల్": 3476,
      "ఫాబ్రిక్": 3477,
      "శీఘ్ర": 3478,
      "దొంగిలించారు": 3479,
      "ఎంపికైందిName": 3480,
      "లైబ్రరీ": 3481,
      "బ్రతకాలని": 3482,
      "చిత్రీకరించిన": 3483,
      "బెల్వెడెరే": 3484,
      "కళావరుల": 3485,
      "ఎక్‍స్‌టెండెడ్": 3486,
      "సాఫ్ట్‍వేర్‌ను": 3487,
      "ఎక్స్పీరియన్స్": 3488,
      "వెనుకభాగంలో": 3489,
      "పొయానుQODBCResult": 3490,
      "రంగులుpalette": 3491,
      "అనువదించుQuery": 3492,
      "Settings": 3493,
      "Worldwide7477": 3494
    },
    "merges": [
      "న ు",
      "ర ు",
      "న ్",
      "న ి",
      "స ్",
      "క ్",
      "ర ్",
      "ద ి",
      "మ ీ",
      "ర ి",
      "క ు",
      "న ా",
      "ప ్",
      "మీ రు",
      "ల ు",
      "న ే",
      "ం చ",
      "డ ి",
      "ద ు",
      "నే ను",
      "ం ది",
      "ట ్",
      "మ ు",
      "ల ్",
      "క ా",
      ". .",
      "డ ు",
      "త ు",
      "వ ా",
      "ల ి",
      "్ య",
      "చ ే",
      "ప ు",
      "గ ా",
      "క్ క",
      "ల ే",
      "ం ట",
      "వ ి",
      "మ ా",
      "న్ నా",
      "ఒ క",
      "త ్",
      "ె ౖ",
      "ర ా",
      "ం డి",
      "క ి",
      "ల ో",
      "చ ి",
      "య ు",
      "త ి",
      "య ి",
      "ల ా",
      "ప్ ర",
      "గ ి",
      "స ం",
      "గ ు",
      "ట ి",
      "స ి",
      "డ ా",
      "ద ్",
      "వ ు",
      "డ ్",
      "మ ి",
      "గ ్",
      "లే దు",
      "మ రి",
      "ఉ ంది",
      "క ో",
      "మ ే",
      "ద ా",
      "స్ తు",
      "చ ్",
      "న్ ని",
      "ప ా",
      ".. .",
      "మరి యు",
      "a m",
      "న్ న",
      "అ త",
      "క్క డ",
      "ం దు",
      "య ా",
      "స ు",
      "క ొ",
      "ంచ ి",
      "త ె",
      "మ ్",
      "ని కి",
      "చ ూ",
      "ప్ పు",
      "వ ె",
      "ర ం",
      "బ ్",
      "త ా",
      "o n",
      "మ ె",
      "ొ క్క",
      "మే ము",
      "య ొక్క",
      "ళ ్",
      "స ా",
      "ంచ ు",
      "ప ి",
      "am e",
      "i n",
      "త ో",
      "చ ా",
      "చ ు",
      "బ ా",
      "ఇ ది",
      "ర ే",
      "వ ే",
      "నా కు",
      "న ీ",
      "మ ై",
      "య ం",
      "వ చ్",
      "చ ె",
      "ప్పు డు",
      "ళ్ ళ",
      "ట ా",
      "ఇ క్కడ",
      "క్ ష",
      "క ే",
      "త ం",
      "అత ను",
      "ప ొ",
      "N ame",
      "అ ను",
      "అ న్ని",
      "ఉ ంట",
      "జ ా",
      "తె లు",
      "ం ద",
      "ఏ మి",
      "మై న",
      "ప ో",
      "ష ్",
      "హ ా",
      "న ం",
      "ర ీ",
      "వ ్",
      "ట్ ట",
      "చూ డ",
      "e r",
      "క లి",
      "డా నికి",
      "o r",
      "అ ది",
      "ఫ ్",
      "ల ను",
      "ం గ్",
      "స్తు న్నా",
      "ర ో",
      "t i",
      "ఉ న్నా",
      "ర ె",
      "ం డ",
      "ప ే",
      "స్ థ",
      "భ ా",
      "కా నీ",
      "కలి గి",
      "గ ొ",
      "బ ి",
      "ర ణ",
      "ఖ ్య",
      "త ీ",
      "కా దు",
      "వె ళ్ళ",
      "ట కు",
      "ప ె",
      "ల ం",
      "వ ర్",
      "ద్ ద",
      "చూడ ండి",
      "e s",
      "ఇ ప్పుడు",
      "య ో",
      "హ ి",
      "రి ంచి",
      "సి న",
      "ఆ మె",
      "వ ్య",
      "కు డి",
      "తెలు సు",
      "ం త",
      "అ వు",
      "స మ",
      "త్ త",
      "ందు కు",
      "చా లా",
      "శ ా",
      "ంట ి",
      "a r",
      "డ ం",
      "ప రి",
      "స రే",
      "వా రు",
      "సం ఖ్య",
      "కో సం",
      "స ె",
      "చే య",
      "ంట ు",
      "ం గా",
      "శ ్",
      "హ ్",
      "స్ తా",
      "రి గి",
      "ల్ ల",
      "గు రించి",
      "వచ్ చు",
      "చె ప్",
      "ఉన్నా యి",
      "e n",
      "స్ ట్",
      "ంచ ా",
      "అవు ను",
      "s t",
      "ఏ ద",
      "క ీ",
      "ట ు",
      "ూ ర్",
      "ంట ే",
      "మా ర్",
      "వచ్ చి",
      "ర క",
      "న్నా రు",
      "అ క్కడ",
      "జ ీ",
      "ట ర్",
      "మ ొ",
      "ల ె",
      "e l",
      "o l",
      "జ ు",
      "మ ంచి",
      "ను ండి",
      "ని ని",
      "క్ రి",
      "స్తు ంది",
      "వెళ్ళ ి",
      "o m",
      "t h",
      "మ ని",
      "కు ంటు",
      "ష్ ట",
      "ti on",
      "గొ న్న",
      "ద ే",
      "ధ ా",
      "మ ర్",
      "క్ తి",
      "్య ా",
      "0 0",
      "ం డా",
      "జ ి",
      "బ ె",
      "వ ర",
      "స ర్",
      "హ ే",
      "పొ ంద",
      "స్థ ా",
      "అ ం",
      "అ వ",
      "అ ని",
      "త న",
      "బ ు",
      "వ లం",
      "క్ కు",
      "in g",
      "బా గా",
      "కే వలం",
      "స్తున్నా ను",
      "i c",
      "t e",
      "జ ్",
      "ష ి",
      "న్ ను",
      "కొ న్ని",
      "ఉంట ు",
      "వచ్చి ంది",
      "m en",
      "బ ర్",
      "మ ూ",
      "ప్ ప",
      "ట్ లా",
      "తు ంది",
      "మా ట్లా",
      "పే రు",
      "ఉంటు ంది",
      "ం ట్",
      "క ూ",
      "ట ె",
      "త ే",
      "ద ీ",
      "య ్య",
      "వ ీ",
      "లే దా",
      "ై నా",
      "ఏమి టి",
      "తీ సు",
      "a t",
      "c k",
      "ఓ హ్",
      "గ ం",
      "చ ర్",
      "ప ూర్",
      "య న్",
      "ల ని",
      "వ ద్ద",
      "ౌ న్",
      "ర్ థ",
      "కా ల్",
      "చే యు",
      "త్ ర",
      "చ్ చి",
      "పొ ందు",
      "భా వి",
      "వ్య క్తి",
      "ఏద ో",
      "I N",
      "ఆ ఫ్",
      "ఉ ండ",
      "ఎ లా",
      "గ ో",
      "య ూ",
      "ని ర్",
      "చే సిన",
      "ప్ర తి",
      "టా నికి",
      "తం గా",
      "ఉంట ే",
      "ట్ట ు",
      "or t",
      "కుంటు న్నా",
      "u t",
      "ం పు",
      "ఎ ందుకు",
      "డ ె",
      "ధ ి",
      "ప యో",
      "బ ో",
      "ల ీ",
      "ష న్",
      "స ై",
      "స రం",
      "రి కా",
      "చే సి",
      "త్ రి",
      "ద్ దు",
      "రో జు",
      "పొంద ండి",
      "a n",
      "f o",
      "u n",
      "అ ప్",
      "ఎ ం",
      "క ను",
      "డ ే",
      "ణ ం",
      "ప ని",
      "బ డి",
      "స ీ",
      "స ో",
      "స మా",
      "వి ష",
      "తె లి",
      "మ్ మ",
      "ంచా రు",
      "పొందు టకు",
      "పయో గి",
      "C om",
      "O N",
      "a l",
      "a s",
      "c h",
      "d e",
      "h ort",
      "u s",
      "క ం",
      "క మ్",
      "ధ ్య",
      "న ము",
      "న న్ను",
      "బ ం",
      "వ రి",
      "శ ి",
      "స ే",
      "ని జ",
      "ంచ డానికి",
      "ము ందు",
      "గ్ ర",
      "కో రు",
      "ప్పు డ",
      "in fo",
      "సమ యం",
      "అవ సరం",
      "men t",
      "పూర్ తి",
      "o f",
      "క ంటే",
      "డ ీ",
      "న ె",
      "ర ొ",
      "వ ంటి",
      "హ ె",
      "ై న",
      "ో న్",
      "స్ త",
      "ంచ ే",
      "ంచ ండి",
      "ట్ టి",
      "ంట ా",
      "తి రిగి",
      "అత నిని",
      "వే చి",
      "ఉంట ా",
      "క్కు వ",
      "Com ment",
      "ప్పుడ ూ",
      "A N",
      "ం డు",
      "ం లో",
      "ఇ ష్ట",
      "క ె",
      "క రి",
      "ఖ చ్చి",
      "జ ె",
      "జ రిగి",
      "డ ౌన్",
      "ద య",
      "ద ర్",
      "ద ్య",
      "య వా",
      "వ ది",
      "వ ై",
      "హ ు",
      "స్ ట",
      "స్ క్",
      "ది గా",
      "ప్ రా",
      "వా రా",
      "్య ం",
      "స్తు న్న",
      "ంచు ము",
      "క్ష ి",
      "అను కుంటున్నా",
      "తెలు సా",
      "మొ ద",
      "దయ చేసి",
      "a b",
      "n ame",
      "ం డ్",
      "అ ప్పుడు",
      "ఉ ండా",
      "ఎ వ",
      "క ర",
      "జ స్ట్",
      "ఫ ై",
      "ర ూ",
      "ర కు",
      "వ ద్దు",
      "‌ ను",
      "వా టి",
      "పు న",
      "రా త్రి",
      "కి ంగ్",
      "గు ర్",
      "కొ త్త",
      "కొ రకు",
      "హా ర్",
      "లె ట్",
      "th e",
      "మని షి",
      "ప్ప టి",
      "IN G",
      "ఖచ్చి తంగా",
      "c ol",
      "i s",
      "l e",
      "l o",
      "ం ప",
      "ం క్",
      "ఇ న్",
      "ఎ ందు",
      "ఓ కే",
      "ట ం",
      "డ బ్",
      "న ది",
      "ఫ ా",
      "ఫ క్",
      "య ె",
      "య త్",
      "ర ై",
      "శ ం",
      "శ ీ",
      "స ూ",
      "స హా",
      "స్ య",
      "ర్ డు",
      "కు న్నా",
      "ంచ డం",
      "ట్ లు",
      "తు న్నా",
      "చే స్తుంది",
      "చే స్తున్నాను",
      "మా త్ర",
      "ప్ర యత్",
      "మి స్",
      "పా ఠ",
      "తో ంది",
      "జా క్",
      "పో యా",
      "స్తా రు",
      "స్తా యి",
      "కూ డా",
      "ర్థ ం",
      "చేయు ము",
      "తెలి య",
      "col or",
      "ఎందు కంటే",
      "ప్రయత్ ని",
      "I C",
      "d o",
      "e c",
      "i te",
      "ఉ త్త",
      "క ర్",
      "ద ొ",
      "ప ై",
      "ఫ ి",
      "బ య",
      "బ ్యా",
      "బ హు",
      "మ తి",
      "వ ం",
      "వ త్",
      "స్ టా",
      "క్ ర",
      "క్ స్",
      "మీ కు",
      "రి ంగ్",
      "ప్ లే",
      "డి పి",
      "వా లని",
      "త్ రా",
      "ప్ర ో",
      "ప్ర స్తు",
      "ద్ ర",
      "వు న్న",
      "దా లు",
      "కొ ను",
      "ంచు కో",
      "పి ల్ల",
      "జా బి",
      "స్తున్నా రు",
      "రె ండు",
      "సమ స్య",
      "చేయ వచ్చు",
      "చెప్ పా",
      "ఏద ైనా",
      "బర్ ట్",
      "తీసు కు",
      "ఉంటా యి",
      "సహా యం",
      "మాత్ర మే",
      "డిపి ఐ",
      "E S",
      "G R",
      "O R",
      "S hort",
      "a tion",
      "d er",
      "e t",
      "o p",
      "అ లా",
      "అ ంద",
      "అ ంటే",
      "ఇ వ్",
      "ఇ ప్పటి",
      "ఉ పయోగి",
      "ఎ ల్ల",
      "ఎ వర",
      "గ ే",
      "ద ృ",
      "ద ో",
      "ధ న్",
      "ప ీ",
      "భ ి",
      "మ ో",
      "మ హి",
      "మ ైన",
      "వ ల",
      "వ స్తాయి",
      "శ ు",
      "ష ా",
      "స్ నే",
      "ల్ లి",
      "వా స",
      "వి న",
      "మా రు",
      "మా కు",
      "లో కి",
      "ప్ర ే",
      "సం వత్",
      "ద్ దిగా",
      "ద్ వారా",
      "డ్ డా",
      "అత ని",
      "కొ ద్దిగా",
      "చూ డా",
      "బ్ రే",
      "తా రు",
      "పి క",
      "టా ప్",
      "క్ష ణ",
      "ష్ టి",
      "వ్ వు",
      "ti t",
      "పె ద్ద",
      "జీ వి",
      "వర కు",
      "మాట్లా డు",
      "విష యం",
      "ంటా రు",
      "యవా దాలు",
      "ఉండా లి",
      "ఎవ రు",
      "వాటి ని",
      "డబ్ బు",
      "ite m",
      "జాబి తా",
      "చెప్పా రు",
      "ధన్ యవాదాలు",
      "మహి ళ",
      "C H",
      "C K",
      "C h",
      "N T",
      "U S",
      "U NT",
      "a d",
      "h e",
      "r o",
      "s el",
      "అ మె",
      "అ మర్",
      "అ ధ్య",
      "అ ర్థం",
      "ఆ లో",
      "ఇ త",
      "ఇ ంటి",
      "ఎ క్కడ",
      "ధ ్",
      "న ో",
      "ప ట్ట",
      "ఫ ోన్",
      "బ ే",
      "మ న్",
      "య ే",
      "ల ొ",
      "స రి",
      "ీ మ్",
      "ు డు",
      "ని మి",
      "లు గు",
      "ము ను",
      "ల్ లో",
      "వా డు",
      "చే యా",
      "చే శా",
      "వి ధ",
      "చి న్న",
      "చి వరి",
      "యా లు",
      "on der",
      "పి ంచు",
      "పో యి",
      "వ్య ా",
      "రక ం",
      "మర్ చి",
      "తీసు కో",
      "సై న్",
      "ఎం పిక",
      "గుర్ తు",
      "బయ టకు",
      "దో ష",
      "చూడా లి",
      "5 0",
      "K Ch",
      "a y",
      "b lo",
      "d i",
      "o de",
      "r i",
      "అ మ్",
      "అ య్య",
      "ఆ ట",
      "ఇ ం",
      "ఉ ద్య",
      "ఎ క్కువ",
      "ఏ ం",
      "క ల",
      "క ళ",
      "క లు",
      "గ త",
      "గ ల",
      "గ ీ",
      "చ ంప",
      "త ొ",
      "థ ీమ్",
      "ద ం",
      "ఫ ె",
      "బ డ",
      "బ ట్టి",
      "మ ం",
      "ల ై",
      "ల ై",
      "ల తో",
      "స రా",
      "ు లు",
      "న్ స్",
      "స్ వా",
      "క్ లి",
      "డి యో",
      "డు గు",
      "తు లు",
      "వా త",
      "వా ల్",
      "లి యా",
      "వి లు",
      "వి చా",
      "ప్ర జ",
      "ద్ ధ",
      "గ్ రా",
      "దా నిని",
      "చ్ చ",
      "పా ట",
      "ంచి న",
      "వె ర్",
      "రం గు",
      "బ్ ర",
      "ంచు టకు",
      "చా లు",
      "బా యి",
      "ళ్ళ ు",
      "er s",
      "భా గ",
      "రణ ం",
      "es t",
      "శా ల",
      "ar sel",
      "శ్ వాస",
      "చెప్ ప",
      "st at",
      "ic ode",
      "ఉండ వచ్చు",
      "నిర్ వ",
      "un icode",
      "బడి న",
      "నిజ ంగా",
      "ఇష్ట ం",
      "వది లి",
      "ప్రా రం",
      "కర మైన",
      "మిస్ టర్",
      "ec t",
      "GR UNT",
      "ఎల్ల ప్పుడూ",
      "సంవత్ సరా",
      "అమె రికా",
      "అధ్య క్ష",
      "చేశా రు",
      "KCh arsel",
      "blo ck",
      "ఉద్య ో",
      "చంప డానికి",
      "stat us",
      "KCharsel ect",
      "E T",
      "L ES",
      "M AN",
      "M US",
      "U CK",
      "a c",
      "e d",
      "i t",
      "i de",
      "p l",
      "t o",
      "u p",
      "ం తి",
      "అ యి",
      "అ బ్",
      "అ న్నారు",
      "అ డుగు",
      "ఆ సి",
      "ఆ శ్",
      "ఎ ప్పుడూ",
      "ఏ మీ",
      "ఖ ా",
      "గ ణ",
      "గ ె",
      "గ ర్",
      "గ మని",
      "జ ూ",
      "ట ీ",
      "ట ే",
      "త ూ",
      "త లు",
      "త మైన",
      "ద ూ",
      "ద ె",
      "ద గ్",
      "న లు",
      "ప ట్టు",
      "ఫ కింగ్",
      "బ రు",
      "భ ్",
      "మ ళ్ళ",
      "ర గ",
      "వ న్నా",
      "వ ండి",
      "స ృ",
      "ి క",
      "ని ద్ర",
      "స్ మ",
      "స్ కు",
      "స్ టి",
      "స్ తోంది",
      "ర్ య",
      "కు న్నారు",
      "కు ండా",
      "ము లు",
      "ము గి",
      "ల్ స్",
      "కా రు",
      "డు తుంది",
      "తు పా",
      "తు న్నారు",
      "వా రి",
      "వా స్త",
      "లి ం",
      "్య ు",
      "్య ూ",
      "లే క",
      "త్ తి",
      "త్ తం",
      "ప్ర మా",
      "గి లి",
      "సి ంది",
      "వు పయోగి",
      "కో ల్",
      "చ్ ఛ",
      "పా టు",
      "అత నికి",
      "ంచి ంది",
      "చూ సిన",
      "వె ళ్",
      "రం గా",
      "on t",
      "సా రి",
      "చా రం",
      "వర్ తన",
      "మార్ గం",
      "కుంటు న్నారు",
      "మూ డు",
      "మాట్లా డ",
      "భావి స్తున్నాను",
      "సమా చారం",
      "as e",
      "రొ క",
      "జరిగి నది",
      "అనుకుంటున్నా ను",
      "మొద టి",
      "ఫై లు",
      "దొ రక",
      "బహు శా",
      "ఇప్పటి కీ",
      "స్నే హి",
      "tit le",
      "జీవి తం",
      "CH UCK",
      "అమర్ చు",
      "పట్ట ీ",
      "అయ్య ో",
      "విలు వ",
      "వెర్ రి",
      "బాయి లు",
      "నిర్వ హి",
      "MUS IC",
      "అబ్ బాయిలు",
      "ఆశ్ చర్",
      "మళ్ళ ీ",
      "సృ ష్టి",
      "0 x",
      "2 00",
      "7 2",
      ": %",
      "B a",
      "D E",
      "D V",
      "W onder",
      "\\ \\",
      "e m",
      "l ing",
      "m on",
      "q u",
      "s hort",
      "u l",
      "ం దా",
      "అ డ",
      "అ రు",
      "అ ర్",
      "అ ప్ర",
      "ఆ హా",
      "ఎ స్",
      "ఐ రొ",
      "గ ర",
      "గ ంట",
      "చ న",
      "చ ీ",
      "జ ే",
      "జ ర్",
      "త రు",
      "త క్కువ",
      "ధ న",
      "న గ",
      "న ని",
      "న పు",
      "ప ంచ",
      "ప రీ",
      "బ ూ",
      "య లు",
      "ర ము",
      "ర క్షి",
      "ల కు",
      "వ య",
      "వ ో",
      "వ డానికి",
      "వ రణ",
      "హ ం",
      "ై ంది",
      "‍ క్",
      "రు గు",
      "రు వు",
      "ని క",
      "ని యం",
      "స్ ప",
      "ర్ లు",
      "కు లు",
      "ప్ రి",
      "ప్ ట్",
      "ప్ యా",
      "లు క్",
      "నే డు",
      "డి ద",
      "డి త్",
      "ట్ స్",
      "కా బట్టి",
      "వా ర్",
      "వా లి",
      "లి యన్",
      "చే యి",
      "చే స్తా",
      "చే స్తున్నారు",
      "లే ని",
      "వి న్న",
      "వి ండ",
      "ప్ర శ్",
      "ద్ దా",
      "మరి ంత",
      "దా ని",
      "దా రి",
      "పా త",
      "న్న ీ",
      "యా నికి",
      "సు ల",
      "కొ న",
      "బ్ రి",
      "on e",
      "సా రా",
      "చు ట్ట",
      "చె య్య",
      "కే జీ",
      "అను మతి",
      "వ్ ర",
      "వ్ రా",
      "రె డీ",
      "స్థ ి",
      "పె ట్ట",
      "es s",
      "ar d",
      "పరి మా",
      "పరి ష్",
      "చెప్ పే",
      "మొ త్తం",
      "క్రి ప్ట్",
      "దే శం",
      "జి మ్",
      "స్థా యి",
      "స్థా పి",
      "men u",
      "టె క్",
      "కను గొ",
      "జరిగి ంది",
      "అనుకుంటున్నా రా",
      "మొద లు",
      "ab el",
      "పున ః",
      "హార్ డ్",
      "సూ చి",
      "ఫి క్",
      "ప్రస్తు త",
      "పిల్ల లు",
      "ఇవ్ వాలని",
      "ఎవర ైనా",
      "విన ండి",
      "దోష ము",
      "ప్రజ లు",
      "ప్రారం భి",
      "అధ్యక్ష ుడు",
      "ఆసి యా",
      "దూ రంగా",
      "CHUCK LES",
      "ఆశ్చర్ యానికి",
      "DV D",
      "mon th",
      "అప్ర మే",
      "ఐరొ పా",
      "పరీ క్ష",
      "ప్యా కేజీ",
      "చుట్ట ూ",
      "1 0",
      "H A",
      "I n",
      "K DE",
      "L L",
      "L T",
      "N ation",
      "T h",
      "T OR",
      "b o",
      "e x",
      "f i",
      "h t",
      "i st",
      "l abel",
      "m b",
      "r e",
      "w n",
      "అ ందు",
      "ఆ ల్",
      "ఆ ధా",
      "ఈ జ్",
      "ఉ న్న",
      "ఎ ల్",
      "ఎ గు",
      "ఎ ంత",
      "ఒ క్క",
      "క న్",
      "క మా",
      "క నీ",
      "క రణ",
      "క ూర్",
      "క ళ్ళు",
      "చ నము",
      "జ త",
      "జ న్",
      "జ రగ",
      "డ ై",
      "డ ొ",
      "డ ో",
      "డ ్యూ",
      "త ప్పు",
      "ద ని",
      "ధ ం",
      "న ూ",
      "న ొ",
      "న కు",
      "న ందు",
      "న ొక్క",
      "న ప్పుడు",
      "న వ్వు",
      "న రకం",
      "ప ల",
      "ప ై",
      "ప డ్డా",
      "బ డుతుంది",
      "భ ు",
      "భ ూ",
      "మ రొక",
      "ల ూ",
      "ల ము",
      "ల గి",
      "వ సి",
      "వ డం",
      "వ చనము",
      "శ నం",
      "ష ం",
      "స ర",
      "హ త",
      "హ ్యా",
      "హ క్కు",
      "ా లు",
      "ృ త",
      "ను వ్వు",
      "రు ష",
      "న్ యా",
      "ని ట్ట",
      "స్ పే",
      "స్ ‍క్",
      "స్ క్రిప్ట్",
      "క్ టర్",
      "ర్ చు",
      "ర్ రీ",
      "కు డు",
      "కు టు",
      "కు మారు",
      "నా న్",
      "నా లుగు",
      "నా శనం",
      "ప్ ల",
      "ంచ వచ్చు",
      "డి చి",
      "డి ంచి",
      "డి స్కు",
      "దు లు",
      "ట్ ర",
      "ట్ ‌",
      "ల్ మె",
      "కా లను",
      "కా శం",
      "తు న్న",
      "వా నికి",
      "వా వ్",
      "చే తి",
      "చే స్తున్న",
      "పు ని",
      "పు రుష",
      "గా డ్డా",
      "గా డిద",
      "వి శ్",
      "త్ తు",
      "త్ రణ",
      "చి త్",
      "యి ంట్",
      "ప్ర దర్",
      "ప్ర పంచ",
      "గి న",
      "సం స్థ",
      "సం బం",
      "గు డ్",
      "వు ని",
      "మి లియన్",
      "దా రు",
      "పా డించి",
      "కొ ని",
      "వె ల్",
      "బ్ బ",
      "on g",
      "వే శ",
      "వే ర్",
      "క్ష మి",
      "అను వర్తన",
      "జా గ్ర",
      "ఫ్ లా",
      "స్తున్నా రా",
      "ఉన్నా ను",
      "ండ ె",
      "బి ట్",
      "తీ వ్ర",
      "వెళ్ళ ండి",
      "పె న్",
      "ar t",
      "ar y",
      "చేయ డం",
      "స్ట్ రీ",
      "st one",
      "ూర్ పుని",
      "మార్ పు",
      "రక ము",
      "రక మైన",
      "జు డిత్",
      "వెళ్ళి పో",
      "ష్ట ం",
      "దే వుని",
      "ధా నం",
      "జి న్",
      "బె ల్",
      "అవ కాశం",
      "te x",
      "జ్ ఞ",
      "దీ న్ని",
      "నిర్ ధా",
      "ut t",
      "డె స్క్",
      "డె స్‍క్",
      "రికా ర్డు",
      "బడి ంది",
      "బం తి",
      "నిజ మైన",
      "కోరు కుంటున్నారు",
      "ంచే ందుకు",
      "జె క్",
      "వై పు",
      "కున్నా డు",
      "పోయా ను",
      "పోయా రు",
      "తెలియ ని",
      "ఉత్త మ",
      "బ్యా క్",
      "త్రా లు",
      "ప్రో జెక్",
      "ప్రస్తు తం",
      "Short Name",
      "వల సిన",
      "ప్రే మి",
      "అతని తో",
      "బ్రే క్",
      "మాట్లాడు తూ",
      "ఆలో చి",
      "ఇత ర",
      "నిమి షా",
      "పోయి ంది",
      "di an",
      "కళ ా",
      "తొ లగి",
      "క్లి క్",
      "విచా ర",
      "సంవత్సరా ల",
      "ఉద్యో గం",
      "స్టి యన్",
      "ప్రమా ద",
      "స్నేహి తు",
      "Wonder stone",
      "అరు పు",
      "తరు వాత",
      "నియం త్రణ",
      "విండ ో",
      "కొన సా",
      "పరిమా ణం",
      "చెప్పే వాడు",
      "అప్రమే య",
      "In dian",
      "Nation al",
      "bo x",
      "అందు బా",
      "నిట్ట ూర్పుని",
      "కుటు ం",
      "కుమారు డు",
      "గాడ్డా మ్",
      "జాగ్ర త్త",
      "' %",
      "1 8",
      "C A",
      "C R",
      "C op",
      "E R",
      "F ont",
      "G ET",
      "I M",
      "O F",
      "Q Short",
      "S t",
      "S IM",
      "T H",
      "V IC",
      "W h",
      "c on",
      "c om",
      "c ut",
      "c ri",
      "c ard",
      "g he",
      "g ro",
      "i z",
      "n o",
      "r a",
      "s h",
      "s y",
      "u g",
      "u ck",
      "w ide",
      "అ ద",
      "అ భ",
      "అ స",
      "అ నే",
      "అ చే",
      "అ ంత",
      "ఆ క",
      "ఆ స",
      "ఆ ర్",
      "ఆ గా",
      "ఇ లా",
      "ఉ త్",
      "ఉ ద్ద",
      "ఊ హి",
      "ఎ క్",
      "ఎ దు",
      "ఎ లి",
      "ఎ ంచు",
      "ఐ స్",
      "ఐ దు",
      "ఒ ంటి",
      "క ౌ",
      "చ ం",
      "చ ని",
      "చ ్యు",
      "జ న",
      "జ రి",
      "ట న",
      "ట ొ",
      "ట న్",
      "ట ల్",
      "ట ై",
      "ట లో",
      "ట రీ",
      "డ ర్",
      "త ల",
      "త ర్",
      "త ప్ప",
      "త ల్లి",
      "థ ి",
      "ద గిన",
      "న ల్",
      "న డు",
      "న ై",
      "న మ్మ",
      "ప ం",
      "ప ర్",
      "ప డి",
      "ప దా",
      "ప ంద",
      "ప ైన",
      "ప త్తి",
      "ఫ ై",
      "ఫ న్నీ",
      "బ ీ",
      "బ ొ",
      "మ ధ్య",
      "య మైన",
      "ర ండి",
      "ల ప",
      "ళ ీ",
      "వ ని",
      "వ లె",
      "శ ్యం",
      "స ొ",
      "హ ీ",
      "హ ో",
      "హ లో",
      "ె ం",
      "ౌ ండ్",
      "‍ స్",
      "రు గా",
      "న్ యూ",
      "ని ంగ్",
      "స్ సు",
      "ర్ స్",
      "ర్ డ్",
      "ర్ షి",
      "ది గు",
      "రి క",
      "రి గా",
      "రి యా",
      "రి యన్",
      "కు నే",
      "ప్ య",
      "ప్ పి",
      "ప్ యూ",
      "ంచ బడిన",
      "డి గ్",
      "ట్ రా",
      "ము ఖ",
      "ము ందుకు",
      "ల్ ని",
      "కా ల",
      "కా లు",
      "కా లేదు",
      "కా ర్డు",
      "వా గ్",
      "లి ంచ",
      "లి ంగ్",
      "చే త",
      "లే డీ",
      "వి ని",
      "వి స్",
      "వి రిగి",
      "వి వరణ",
      "మా న",
      "మా న్",
      "మా యి",
      "ఒక టి",
      "కి చ",
      "చి హ్",
      "చి త్ర",
      "యి న్",
      "ప్ర యా",
      "ప్ర వేశ",
      "సం దర్",
      "గు తుంది",
      "టి న్",
      "సి వే",
      "సి ఫిక్",
      "వు ంది",
      "డ్ రి",
      "డ్ రా",
      "డ్ రై",
      "మి గిలి",
      "కో డ్",
      "కో వడానికి",
      "దా పు",
      "దా నం",
      "దా దాపు",
      "పా ర",
      "పా లు",
      "అత న్ని",
      "సు కున్నారు",
      "కొ ంత",
      "తె ర",
      "చూ పు",
      "చూ పించు",
      "బ్ ‌",
      "మె ర్రీ",
      "సా ఫ్",
      "బా ర్",
      "వే య",
      "చె య",
      "చె ల్లి",
      "క్ష ణం",
      "అను కు",
      "అను కూ",
      "అను కున్నా",
      "పో లీ",
      "చూడ టానికి",
      "er a",
      "కలి సి",
      "ti c",
      "ఉన్నా రు",
      "రె ండ",
      "ండ ర్",
      "భా ర్య",
      "గొ ప్ప",
      "తీ య",
      "పె సిఫిక్",
      "es cri",
      "యో గ",
      "ంటి ల్మె",
      "పరి గణ",
      "సె ల్",
      "సె షన్",
      "చేయ ండి",
      "ల్ల ీ",
      "చెప్ పి",
      "ంచా లి",
      "కీ లు",
      "టు ను",
      "టు లో",
      "మార్ చు",
      "el l",
      "క్రి ంది",
      "క్రి యా",
      "క్రి స్మ",
      "om e",
      "వర గా",
      "స్థా నం",
      "అం తా",
      "బర్ నింగ్",
      "కూ డ",
      "తే దీ",
      "దీ నిని",
      "వీ లు",
      "చర్ చ",
      "భావి ంచడం",
      "భావి స్తున్నారా",
      "ఆఫ్ రికా",
      "గో లు",
      "సై మన్",
      "చేసి ంది",
      "un ch",
      "కను క",
      "విష యాలు",
      "తెలి సిన",
      "మ్మ ల్ని",
      "కం ప్యూ",
      "పూర్తి గా",
      "స్త ూ",
      "ఉంటా ం",
      "కరి ంచారు",
      "కరి ంచడానికి",
      "స్ట ీ",
      "స్ట ే",
      "క్షి ణ",
      "ఫై ళ్ళ",
      "పున రా",
      "శీ ర్షి",
      "పాఠ శాల",
      "తెలియ దు",
      "ప్రయత్ని ంచండి",
      "do c",
      "కొను గోలు",
      "తీసుకు న్న",
      "op tion",
      "అంద మైన",
      "అంద ంగా",
      "ఇవ్ వండి",
      "శు భ్",
      "ఆలో చన",
      "చేయా లి",
      "విధ మైన",
      "వ్యా పార",
      "మర్చి పో",
      "గుర్తు ంచుకో",
      "అమ్ మాయి",
      "కలు సుకున్నారు",
      "లై న్",
      "చెప్ప టానికి",
      "GRUNT S",
      "GRUNT ING",
      "to ol",
      "అయి తే",
      "ఖా ళీ",
      "టే క్",
      "దె బ్బ",
      "దగ్ గర",
      "పట్టు కో",
      "వాస్త వానికి",
      "మాట్లాడ టం",
      "దొరక లేదు",
      "Ba ghe",
      "అడ గ",
      "వార్ తలు",
      "సుల భ",
      "వ్రా య",
      "స్థి తి",
      "కూర్ చు",
      "న్యా యవా",
      "స్పే డ్",
      "ప్ల గ్",
      "డిస్కు ను",
      "tex t",
      "జ్ఞ ా",
      "నిర్ధా రి",
      "ప్రోజెక్ టును",
      "అరుపు లతో",
      "అందుబా టులో",
      "జాగ్రత్త గా",
      "Cop tic",
      "QShort cut",
      "SIM ON",
      "VIC TOR",
      "అద నపు",
      "అచే తన",
      "ఆస క్తి",
      "ఉద్ద ే",
      "వాగ్ దానం",
      "సాఫ్ ట్",
      "అనుకున్నా ను",
      "పోలీ సు",
      "ంటిల్మె న్",
      "క్రిస్మ స్",
      "కంప్యూ టర్",
      "Baghe era",
      "' -",
      "1 1",
      "1 5",
      "1 6",
      "1 200",
      "2 color",
      "3 0",
      "3 color",
      "4 9",
      "6 0",
      "A D",
      "A LL",
      "C D",
      "D O",
      "D at",
      "D ay",
      "E H",
      "G en",
      "H I",
      "H T",
      "L ong",
      "M E",
      "M i",
      "O D",
      "Q Font",
      "R est",
      "R iz",
      "T ON",
      "T et",
      "U n",
      "W E",
      "b e",
      "b y",
      "b utt",
      "b ug",
      "d ic",
      "d ay",
      "e e",
      "e ck",
      "f ol",
      "i e",
      "i l",
      "i m",
      "k day",
      "l in",
      "l at",
      "l ist",
      "o o",
      "o s",
      "p tion",
      "p ro",
      "r es",
      "r ic",
      "s e",
      "s o",
      "t r",
      "u st",
      "v er",
      "w h",
      "w ar",
      "w onder",
      "w ee",
      "ం తు",
      "ం గి",
      "ం బ్",
      "ం బరు",
      "అ న",
      "అ మ",
      "అ ంచ",
      "అ ంది",
      "అ ల్",
      "అ ంట",
      "అ ద్",
      "అ డ్",
      "అ క్ష",
      "అ దే",
      "అ మూ",
      "అ దృ",
      "అ ంటారు",
      "అ ధ్",
      "ఆ ప",
      "ఆ య",
      "ఆ స్ట్",
      "ఆ డియో",
      "ఉ ప",
      "ఉ ంచండి",
      "ఉ ంచేందుకు",
      "ఎ డ",
      "ఎ న్",
      "ఎ ర్",
      "ఎ న్ను",
      "ఎ క్స్",
      "ఏ ర్",
      "ఐ ఎస్",
      "ఒ ంట",
      "ఓ వర్",
      "ఓ పెన్",
      "క ని",
      "క ండి",
      "క టన",
      "గ తం",
      "గ స్థ",
      "జ ో",
      "జ బె",
      "ట ై",
      "డ ౌ",
      "డ వి",
      "డ ై",
      "ణ ు",
      "త ర",
      "త ను",
      "ద స్",
      "ద ము",
      "ద క్షిణ",
      "ధ నం",
      "ధ రించి",
      "న ై",
      "న వీ",
      "న ృత",
      "ప రు",
      "ప ట్టి",
      "ప చ్చ",
      "ప కాలను",
      "ఫ ల",
      "ఫ ో",
      "బ ల",
      "బ ై",
      "భ య",
      "మ న",
      "మ ల",
      "మ ను",
      "మ రు",
      "మ ందు",
      "మ ంచు",
      "మ నం",
      "మ రణ",
      "మ ద్ద",
      "మ రణం",
      "మ ్యు",
      "మ ైంది",
      "మ మ్మల్ని",
      "య ర్",
      "ర మ",
      "ర ష",
      "ర హ",
      "ర బ్",
      "ర క్షణ",
      "ల లో",
      "ళ ు",
      "వ ృ",
      "వ ై",
      "వ ొ",
      "వ రు",
      "వ ల్",
      "వ దులు",
      "శ ో",
      "శ ము",
      "శ త్",
      "ష ూ",
      "ష ె",
      "స గం",
      "స వరి",
      "స బ్‌",
      "ను Q",
      "ను క",
      "రు చి",
      "న్ రీ",
      "ని లి",
      "ని జా",
      "ని వసి",
      "స్ వ",
      "స్ ప్",
      "స్ లో",
      "స్ యం",
      "స్ మార్",
      "స్ తే",
      "స్ లీ",
      "క్ సీ",
      "ర్ క్",
      "ర్ ట్",
      "ర్ ధన",
      "ది శ",
      "ది రి",
      "రి కి",
      "రి డ్",
      "కు ల్",
      "కు న్న",
      "కు ంటారు",
      "నా న్ని",
      "ప్ టె",
      "లు గా",
      "నే ట్",
      "నే రుగా",
      "ంచ ె",
      "ంచ ్",
      "డి కి",
      "డి యా",
      "దు స్తు",
      "ట్ ల",
      "ము ంద",
      "ము లను",
      "ము ఖ్య",
      "ము ద్ర",
      "ల్ ‌",
      "ల్ లు",
      "ల్ మన్",
      "ల్ యమైన",
      "కా ర",
      "కా గా",
      "కా గి",
      "కా లం",
      "కా వచ్చు",
      "కా రణం",
      "కా వలసిన",
      "తు కు",
      "వా లు",
      "వా ట్",
      "వా రం",
      "్య ంత",
      "చే రు",
      "చే సు",
      "చే సే",
      "చే స్తారు",
      "చే తులు",
      "చే ర్చు",
      "పు స్త",
      "గా స్",
      "లే షన్",
      "వి భ",
      "వి రా",
      "వి ంత",
      "వి ఫల",
      "మా నా",
      "మా నం",
      "న్నా రా",
      "ఒక సారి",
      "త్ తా",
      "త్ వరగా",
      "రా క్",
      "రా లు",
      "కి ల్",
      "లో డు",
      "లో పల",
      "చి ంది",
      "చి ంతి",
      "తి ంపు",
      "యి ల్",
      "యి స్తుంది",
      "లా గ",
      "లా స్",
      "లా క్",
      "ప్ర కటన",
      "సం దే",
      "సం గీ",
      "గు స",
      "టి ంగ్",
      "సి స్ట",
      "సి ద్ధ",
      "సి మ్యు",
      "ద్ వే",
      "వు లు",
      "వు ంటు",
      "వు ంచుము",
      "మి షన్",
      "గ్ ని",
      "గ్ గా",
      "మే జి",
      "దా డి",
      "దా వా",
      "దా యు",
      "పా ల",
      "పా స్",
      "న్న ంగా",
      "అత ్యంత",
      "యా నుQ",
      "తె లీ",
      "తె రువు",
      "వె ళు",
      "వె నుక",
      "వె తుకు",
      "రం గస్థ",
      "తా ను",
      "తా యి",
      "on es",
      "మె యిన్",
      "ళ్ లు",
      "ళ్ లి",
      "సా ర్లు",
      "సా ల్మన్",
      "పి స్తుంది",
      "బా ధి",
      "బా స్టియన్",
      "వే లం",
      "వే గాస్",
      "యం త్రాలు",
      "చె త్త",
      "టా ర్",
      "కే ం",
      "కే క",
      "పొ యానుQ",
      "అను వది",
      "అను సరి",
      "అను భూ",
      "జా యే",
      "ంద ని",
      "పో రా",
      "పో స్ట్",
      "హా ని",
      "రీ క",
      "er e",
      "er y",
      "or b",
      "or d",
      "ఫ్ రా",
      "ti p",
      "రె లియా",
      "పే ందుకు",
      "భా గం",
      "బి జీ",
      "బి ల్లీ",
      "తీ సివే",
      "పె ట్టు",
      "వర్ త",
      "వర్ చ్యు",
      "es ul",
      "సమ ూ",
      "శా న్ని",
      "పరి కర",
      "సరే నా",
      "సె ర్",
      "సె కన్",
      "చేయ దగిన",
      "చెప్ తున్నా",
      "కీ లను",
      "మార్ క్",
      "అక్కడ ే",
      "క్రి తం",
      "th er",
      "tion ary",
      "ధా లు",
      "పొంద డానికి",
      "స్థా నము",
      "స్థా నిక",
      "అం గ",
      "షి ట్",
      "మాట్లా డే",
      "దీ ని",
      "వీ డియో",
      "వీ క్షణం",
      "చర్ య",
      "ౌన్ సర్",
      "ర్థ ిక",
      "చేయు ట",
      "చేయు టకు",
      "ఉండ ండి",
      "యూ జర్",
      "చేసిన ప్పుడు",
      "ut do",
      "రోజు ల",
      "an d",
      "ఎం బి",
      "సమా ధానం",
      "మ్మ దిగా",
      "al l",
      "ch o",
      "ch eck",
      "శి శు",
      "శి క్షణ",
      "గ్ర హి",
      "కోరు కుంటున్నా",
      "కోరు కున్నాడు",
      "కోరు కుంటారు",
      "సమయం లో",
      "నె ట్",
      "నె మ్మదిగా",
      "హె ల్",
      "హె చ్చ",
      "హె న్రీ",
      "తిరిగి వుంచుము",
      "AN S",
      "AN TON",
      "ఇష్ట పడ్డా",
      "జె ంటిల్మెన్",
      "హు హ్",
      "ab ase",
      "ఎవ రో",
      "గుర్ తింపు",
      "హార్ లే",
      "యె ర్",
      "రై ట్",
      "శీ ల",
      "తున్నా ను",
      "పాఠ ్య",
      "ఉత్త ర",
      "పై కి",
      "బహు ళ",
      "వం తంగా",
      "రింగ్ స్",
      "త్రా న్ని",
      "కొను ము",
      "ంచుకో ండి",
      "తీసుకు ని",
      "తీసుకు రా",
      "ఎవర ూ",
      "దృ ష్టి",
      "స్నే క్",
      "విన డానికి",
      "ప్రే మ",
      "బ్రే వో",
      "ఇంటి కి",
      "బే బ్",
      "సరి గ్గా",
      "పోయి న",
      "మర్చి పోయారు",
      "తీసుకో వాలని",
      "ఎంపిక చేసిన",
      "దోష ం",
      "ఇం జిన్",
      "కల వారు",
      "గ్రా మ్",
      "రంగు లు",
      "భాగ స్వా",
      "ac tion",
      "గె ట్స్",
      "గమని క",
      "జూ లియా",
      "దగ్ గు",
      "నలు పు",
      "ముగి ంపు",
      "ముగి సింది",
      "తుపా కీ",
      "తుపా కులు",
      "కోల్ పో",
      "చ్ఛ ిక",
      "మాట్లాడ టానికి",
      "సృష్టి ంచుటకు",
      "ఆహా ర",
      "గంట ల",
      "నగ రం",
      "వయ స్సు",
      "స్ప ష్ట",
      "చేస్తా ను",
      "ద్దా ం",
      "ద్దా మని",
      "పెట్ట ే",
      "పరిష్ కరించడానికి",
      "జిమ్ మీ",
      "స్థాపి ంచుము",
      "టెక్ చర్",
      "ex am",
      "fi g",
      "ఆధా ర",
      "ఒక్క రూ",
      "కమా ండర్",
      "కనీ సం",
      "నొ ప్పి",
      "నొక్క ి",
      "భు తమైన",
      "పురుష ులు",
      "చిత్ రం",
      "ప్రదర్ శి",
      "సంబం ధం",
      "క్షమి ంచండి",
      "అనువర్తన ము",
      "తీవ్ర మైన",
      "స్ట్రీ ట్",
      "వెళ్ళిపో తున్నాను",
      "ప్రేమి స్తున్న",
      "ఆలోచి స్తూ",
      "ప్రమాద ంలో",
      "స్నేహితు డు",
      "కొనసా గుతుంది",
      "కుటుం బం",
      "OF F",
      "sh utdo",
      "అభ ్య",
      "అనే క",
      "ఆగా రు",
      "ఉత్ పత్తి",
      "ఎదు రు",
      "ఎలి జబె",
      "కౌ ట్",
      "చం పేందుకు",
      "జరి మానా",
      "తర్ వాత",
      "పంద ెం",
      "ఫై న్",
      "ముఖ ం",
      "విని యోగ",
      "విరిగి న",
      "చిహ్ నము",
      "డ్రా ప్",
      "డ్రై వర్",
      "రెండ వ",
      "escri ption",
      "కూడ దు",
      "స్టే షన్",
      "శీర్షి క",
      "గుర్తుంచుకో వాలి",
      "tool tip",
      "దగ్గర గా",
      "సులభ ంగా",
      "కూర్చు ని",
      "న్యాయవా ది",
      "ప్లగ్ ఇన్",
      "జ్ఞా పకాలను",
      "ఉద్దే శ్యం",
      "Dat abase",
      "Day Name",
      "Gen er",
      "Mi B",
      "QFont Database",
      "Rest art",
      "butt on",
      "dic tionary",
      "fol doc",
      "list box",
      "ric h",
      "wee kday",
      "అన ౌన్సర్",
      "అమ లు",
      "అంచ నా",
      "అంట ోన్",
      "అద్ భుతమైన",
      "అమూ ల్యమైన",
      "ఆయ న",
      "ఆస్ట్ రెలియా",
      "ఎడ మ",
      "ఒంట రిగా",
      "కని పిస్తుంది",
      "డవి డే",
      "మరణ ి",
      "వొ క",
      "శత్ రువు",
      "షూ ట్",
      "నిలి పి",
      "నిజా నికి",
      "స్ప్ రింగ్",
      "స్లీ ప్",
      "ముంద స్తు",
      "కాగి తం",
      "విఫల మైంది",
      "సిమ్యు లేషన్",
      "ద్వే షం",
      "వుంటు ంది",
      "తెలీ దు",
      "అనువది ంచు",
      "అనుభూ తి",
      "బిజీ గా",
      "వర్చ్యు వల్",
      "esul t",
      "చెప్తున్నా వు",
      "శిశు వు",
      "ఇష్టపడ్డా రు",
      "shutdo wn",
      "ఎలిజబె త్",
      "\" %",
      ") %",
      ") .",
      ", %",
      ", .",
      "- (",
      "/ /",
      "0 l",
      "1 2",
      "1 3",
      "1 4",
      "1 00",
      "2 4",
      "3 00",
      "4 5",
      "4 7",
      "6 00",
      "7 47",
      "8 0",
      "8 8",
      "8 00",
      "9 0",
      "9 00",
      "= =",
      "= \\\\",
      "@ }",
      "A S",
      "A l",
      "A CK",
      "A KCharselect",
      "B R",
      "B al",
      "B us",
      "B CR",
      "C J",
      "C ont",
      "C tr",
      "D escription",
      "E E",
      "E N",
      "F L",
      "F i",
      "G L",
      "G ame",
      "G re",
      "H 9",
      "I R",
      "I S",
      "I Z",
      "J o",
      "K h",
      "L A",
      "L E",
      "L a",
      "L i",
      "L ING",
      "L IZ",
      "M L",
      "M m",
      "M r",
      "M om",
      "M ul",
      "N O",
      "N o",
      "O ANS",
      "P A",
      "Q u",
      "R I",
      "R em",
      "R os",
      "S p",
      "S ort",
      "S et",
      "S CR",
      "S orb",
      "T R",
      "T S",
      "T V",
      "T he",
      "U H",
      "U P",
      "U RI",
      "V O",
      "V i",
      "W M",
      "W or",
      "W HA",
      "W ell",
      "] :",
      "_ R",
      "a g",
      "a h",
      "a p",
      "a v",
      "a in",
      "b ar",
      "b ra",
      "c ess",
      "c lat",
      "d ri",
      "d wide",
      "e h",
      "e p",
      "e in",
      "f a",
      "f or",
      "f uck",
      "g l",
      "g in",
      "g ones",
      "i d",
      "i r",
      "i on",
      "k a",
      "k no",
      "l dwide",
      "m l",
      "n e",
      "n ing",
      "n it",
      "o st",
      "o te",
      "o ther",
      "p s",
      "p er",
      "p al",
      "p le",
      "p ers",
      "r r",
      "r ol",
      "r an",
      "s p",
      "s er",
      "s of",
      "s qu",
      "s ome",
      "s cho",
      "t p",
      "t y",
      "t ing",
      "t as",
      "t ers",
      "u r",
      "u tion",
      "u mb",
      "w w",
      "w ling",
      "{ @}",
      "ం గు",
      "ం కే",
      "ం గిలి",
      "అ బ",
      "అ రి",
      "అ తి",
      "అ వ్",
      "అ ందుకు",
      "అ ర్థ",
      "అ మ్మ",
      "అ ంటా",
      "అ క్ర",
      "అ భి",
      "అ ణు",
      "అ గ్ని",
      "ఆ డ",
      "ఆ న",
      "ఆ ల",
      "ఆ రు",
      "ఆ లి",
      "ఆ పు",
      "ఆ యు",
      "ఆ గి",
      "ఆ సు",
      "ఆ కలి",
      "ఆ రో",
      "ఆ హ్",
      "ఆ కర్",
      "ఆ టిన్",
      "ఇ టీ",
      "ఈ ల",
      "ఉ ద",
      "ఉ ంచ",
      "ఉ చి",
      "ఉ పా",
      "ఉ మ్మ",
      "ఉ ంచడం",
      "ఉ చ్ఛ",
      "ఉ ందని",
      "ఎ క్క",
      "ఎ డ్",
      "ఎ ండ",
      "ఎ లుగు",
      "ఏ ను",
      "ఏ ది",
      "ఐ టి",
      "ఐ చ్ఛిక",
      "ఓ ర్",
      "ఔ ట్ట",
      "క దు",
      "క ల్",
      "క న్నా",
      "క రం",
      "క బ్",
      "క Name",
      "క వర్",
      "క ంగా",
      "క ముందు",
      "క ష్టం",
      "ఖ ీ",
      "ఖ ో",
      "గ ూ",
      "గ ౌ",
      "గ ది",
      "ఘ న",
      "ఘ ా",
      "ఘ ్",
      "చ ొ",
      "చ ండి",
      "చ ట్ట",
      "చ ంపు",
      "జ రు",
      "జ యం",
      "జ ట్టు",
      "జ రుగు",
      "జ ంతు",
      "ట ో",
      "ట కాలు",
      "డ టానికి",
      "ణ ాలు",
      "ణ యిస్తుంది",
      "త ప",
      "త ని",
      "త దు",
      "త కా",
      "త మా",
      "త యా",
      "త ్యా",
      "త ్యం",
      "థ ా",
      "థ ె",
      "ద ల",
      "ద డు",
      "ద త్తా",
      "ధ ీ",
      "ధ వంతంగా",
      "న టి",
      "న డానికి",
      "న మూ",
      "న చ్చి",
      "న మో",
      "న డిచి",
      "ప డ",
      "ప ౌ",
      "ప ది",
      "ప డు",
      "ప డా",
      "ప క్ష",
      "ప నం",
      "ప వచ్చు",
      "ప ంపు",
      "ప త్రి",
      "ప దర్",
      "ప ంప",
      "ప ంక్",
      "ప డుతుంది",
      "ఫ ే",
      "ఫ ొ",
      "ఫ న్",
      "బ ృ",
      "బ ై",
      "బ న్",
      "బ ంటి",
      "భ వ",
      "భ వి",
      "భ యం",
      "భ ంలో",
      "మ ౌ",
      "మ ంచ",
      "మ దర్",
      "మ ద్య",
      "య ీ",
      "య ము",
      "య ల్",
      "ర త",
      "ర ై",
      "ర న్",
      "ర స్",
      "ర ర్",
      "ర ల్",
      "ర మా",
      "ర దృ",
      "ర ౌండ్",
      "ల క",
      "ల త",
      "ల గా",
      "ల వు",
      "ల హా",
      "ల క్షణ",
      "ల జాబితా",
      "ళ ా",
      "వ న",
      "వ లి",
      "వ ంట",
      "వ స్తుంది",
      "వ టానికి",
      "వ స్తున్న",
      "వ టం",
      "శ న",
      "శ ై",
      "శ క్తి",
      "శ నము",
      "ష ీ",
      "ష ంలో",
      "స ై",
      "స న్",
      "స టి",
      "స మ్",
      "స త్యం",
      "స లహా",
      "హ ణ",
      "హ ొ",
      "హ ము",
      "హ ్య",
      "హ ంత",
      "ా రణ",
      "ి న్న",
      "ి ంచు",
      "ు డి",
      "ృ తి",
      "ృ తీ",
      "ె న్",
      "ే జ",
      "‌ టె",
      "‌ గ్ర",
      "‌ చేయుము",
      "‌ నందు",
      "‍ వేర్",
      "రు వ",
      "రు నా",
      "ని య",
      "ని క్",
      "ని రా",
      "ని యు",
      "ని ష్",
      "ని రో",
      "ని న్ను",
      "ని యన్",
      "ని లప",
      "స్ ‌",
      "స్ కా",
      "స్ పా",
      "స్ టర్",
      "స్ పీ",
      "స్ లై",
      "స్ వయ",
      "స్ కౌట్",
      "క్ ల",
      "క్ ట్",
      "క్ రా",
      "క్ రీ",
      "క్ రె",
      "క్ యూ",
      "క్ టొ",
      "క్ టరీ",
      "ర్ ఘ",
      "ర్ మి",
      "ర్ మ్",
      "ర్ Name",
      "ర్ గత",
      "ర్ ధవంతంగా",
      "ది క",
      "మీ తో",
      "మీ రే",
      "రి స్తున్నాను",
      "రి సై",
      "రి ంగి",
      "కు ల",
      "కు ర్",
      "కు ంది",
      "నా మ",
      "నా య",
      "నా ర్",
      "నా తో",
      "నా లను",
      "ప్ టి",
      "ప్ పించు",
      "మీరు గొన్న",
      "లు డు",
      "లు Name",
      "లు KCharselect",
      "నే ల",
      "నే ందుకు",
      "ంచ బ",
      "ంచ బడ",
      "ంచ బడుతుంది",
      "ంచ బడింది",
      "ంచ కండి",
      "డి ఈ",
      "డి ని",
      "డి గా",
      "ట్ రం",
      "ట్ జ్",
      "ము ల",
      "ము సి",
      "ము Comment",
      "ము పై",
      "ల్ యు",
      "ల్ డ్",
      "ల్ సిన",
      "ల్ టర్",
      "ల్ డర్",
      "కా ంక్",
      "కా ర్య",
      "కా యలు",
      "కా దని",
      "కా ంబ్",
      "కా ర్ట్",
      "కా కముందు",
      "డు కునే",
      "డు 88",
      "తు వు",
      "తు ల్లో",
      "వా న్",
      "వా యి",
      "వా కింగ్",
      "వా స్క్రిప్ట్",
      "వా న్నంగా",
      "లి యో",
      "లి ంట్",
      "లి చింది",
      "్య న్",
      "చే సా",
      "చే స్తున్నా",
      "పు ట",
      "పు లకు",
      "గా న్",
      "గా లు",
      "లే త",
      "లే ము",
      "లే డ్",
      "లే కుండా",
      "లే నని",
      "ంట ర్",
      "ంట ల్",
      "వి దే",
      "వి ద్య",
      "వి క్ర",
      "వి చ్ఛ",
      "వి జన్",
      "వి క్టర్",
      "వి డిచి",
      "వి ధానం",
      "వి జయం",
      "మా లు",
      "మా మా",
      "మా యా",
      "న్నా డు",
      "ఒక ే",
      "ఒక రు",
      "త్ రో",
      "త్ డే",
      "ై న",
      "రా న్ని",
      "రా జు",
      "రా బో",
      "లో డ్",
      "చి కా",
      "చి త్రాలు",
      "చి రునా",
      "తి క",
      "యి స్",
      "యి క్కడ",
      "యి ప్పటి",
      "లా న్ని",
      "లా ఫ్",
      "లా ర్డ్",
      "లా టిన్",
      "ప్ర ణ",
      "ప్ర ె",
      "ప్ర చు",
      "ప్ర భా",
      "ప్ర భావి",
      "ప్ర వర్తన",
      "గి టార్",
      "సం త",
      "సం భ",
      "సం తా",
      "సం తో",
      "సం కే",
      "గు ండె",
      "గు ళా",
      "టి కా",
      "టి కన్నా",
      "సి లాస్",
      "డా రు",
      "డా టా",
      "ద్ ది",
      "ద్ రం",
      "వు డ్",
      "వు ంటే",
      "వు పదర్",
      "డ్ స్",
      "డ్ రై",
      "డ్ డు88",
      "మి త",
      "మి ది",
      "మి ంచారు",
      "గ్ రే",
      "కో ర్",
      "కో రి",
      "కో లేదు",
      "కో ణం",
      "దా గా",
      "దా న్ని",
      "పా ప్",
      "పా డు",
      "పా త్",
      "పా యింట్",
      "మరియు మీరు",
      "యా ల్",
      "యా ర్క్",
      "సు రక్షి",
      "సు కొని",
      "కొ రియా",
      "ంచి నది",
      "తె ల్ల",
      "తె లప",
      "తె డ్డు88",
      "మ్ ము",
      "మ్ మిది",
      "చూ స్తున్నా",
      "చూ స్తారు",
      "చూ సింది",
      "చూ సుకొని",
      "వె యి",
      "వె డె",
      "వె ంటా",
      "వె రర్",
      "రం ధ్",
      "బ్ రా",
      "బ్ లో",
      "బ్ రె",
      "బ్ లాక్",
      "తా డు",
      "తా నని",
      "on ne",
      "మె త్త",
      "మె ంట్",
      "మె నూ",
      "మె దడు",
      "సా ర",
      "సా ధా",
      "సా ధి",
      "సా లీ",
      "సా రూ",
      "సా ధనం",
      "సా యెర్",
      "సా ంకే",
      "ంచు ట",
      "పి చ్చి",
      "పి ంచడానికి",
      "పి రికి",
      "in do",
      "in menu",
      "in listbox",
      "చా రి",
      "బా ల్",
      "బా గు",
      "బా బ్",
      "బా ధ్య",
      "బా స్టర్",
      "బా లుడు",
      "రే డియో",
      "వే రే",
      "వే రొక",
      "వే దిక",
      "నీ స్",
      "మై క్",
      "మై ంది",
      "చె క్",
      "చె డు",
      "చె ప్పు",
      "చె బు",
      "చె వులు",
      "టా యి",
      "టా గ్",
      "టా స్కు",
      "ఇక్కడ ే",
      "క్ష ్యం",
      "కే టాయి",
      "తం డ్రి",
      "పొ డ",
      "పొ డి",
      "పొ ంది",
      "అను కొను",
      "అను కుంటున్నారు",
      "జా ప్",
      "జా వాస్క్రిప్ట్",
      "ంద ం",
      "ంద ే",
      "ంద ో",
      "పో తుంది",
      "పో యే",
      "హా ంక్",
      "హా ర్థిక",
      "నం త",
      "రీ న్",
      "రీ క్",
      "రీ గా",
      "రీ ఫ్",
      "ట్ట ీ",
      "చూడ లేదు",
      "చూడ డానికి",
      "చూడ టం",
      "కలి సే",
      "ఫ్ రె",
      "ఫ్ లింట్",
      "ఫ్ రీక్",
      "స్తున్నా యి",
      "రో ల్",
      "రో డ్",
      "ఉన్నా ము",
      "ఉన్నా డు",
      "రె స్",
      "రె ంట్",
      "రె క్టరీ",
      "పే జీ",
      "భా రీగా",
      "కానీ మీ",
      "కానీ మేము",
      "బి 5",
      "ఖ్య ా",
      "వెళ్ళ ు",
      "వెళ్ళ ే",
      "వెళ్ళ డానికి",
      "వెళ్ళ డం",
      "పె న్నీ",
      "పె యింట్",
      "పె ళ్లి",
      "లం గా",
      "వర్ తి",
      "వర్ షన్",
      "హి ప్",
      "రించి న",
      "వ్య వ",
      "వ్య క్",
      "కుడి వైపు",
      "తెలుసు కో",
      "తెలుసు కోవడానికి",
      "అవు ట్",
      "సమ ర్ధవంతంగా",
      "త్త మ",
      "శా ంతి",
      "ar v",
      "ar ch",
      "పరి స్థితి",
      "పరి కరం",
      "సె ట్",
      "సె క్స్",
      "సె ప్టె",
      "సె బాస్టియన్",
      "చేయ బో",
      "చేయ బడింది",
      "శ్ రీ",
      "స్తా ను",
      "ల్ల ర్",
      "ంచా ను",
      "ంచా లా",
      "ంచా లక",
      "st em",
      "కీ బో",
      "టు నై",
      "మార్ వుడ్",
      "రక మును",
      "జీ వ",
      "జీ రో",
      "లె స్",
      "లె గ్",
      "el t",
      "el y",
      "el ling",
      "ol in",
      "ol ution",
      "క్రి ంద",
      "క్రి స్టియన్",
      "వెళ్ళి పోయా",
      "th ing",
      "దే ని",
      "ధా ర",
      "్యా లు",
      "్యా లి",
      "00 0",
      "జి ంచవచ్చు",
      "బె టర్",
      "బె దిరి",
      "బె ట్టీ",
      "సర్ వర్",
      "అం డ్",
      "అం బర్",
      "అం గీ",
      "అం గుళా",
      "బు ల్",
      "బు కుల్",
      "ic k",
      "ic Name",
      "ic ation",
      "షి ంచింది",
      "కొన్ని సార్లు",
      "బర్ త్డే",
      "మూ ల",
      "మూ లం",
      "టె ర్మి",
      "టె ల్లర్",
      "తే నె",
      "దీ నికి",
      "య్య ి",
      "చర్ యలు",
      "కాల్ టన్",
      "పొందు తారు",
      "భావి ంచాను",
      "IN T",
      "ఆఫ్ లైన్",
      "ఉండ ే",
      "ఉండ కూడదు",
      "గో ప్య",
      "యూ దా",
      "యూ జ్",
      "నిర్ ణయిస్తుంది",
      "డె ల్",
      "డె డ్",
      "ధి ంచు",
      "సై నిక",
      "an s",
      "ఎం Comment",
      "పని ము",
      "సీ న్",
      "సో ద",
      "విష య",
      "us er",
      "కం పనం",
      "బం ధి",
      "సే వ్",
      "నిజ ం",
      "గ్ర హం",
      "నె ల",
      "ఇష్ట మైన",
      "కె డిఈ",
      "కరి ంచ",
      "జె ర్",
      "వై న",
      "వై ట్",
      "స్క్ రీన్",
      "స్క్ యూజ్",
      "వారా ల",
      "ండ్ ‌",
      "ఉండా లని",
      "పున రు",
      "is pers",
      "lo w",
      "ఇన్ స్టా",
      "డబ్ ల్యు",
      "ఫా ర్",
      "ఫా బ్రి",
      "యె ంచు",
      "శీ ఘ్",
      "సూ ది",
      "సూ చన",
      "తున్నా రా",
      "తున్నా రో",
      "చేస్తుంది Name",
      "పాఠ ం",
      "పాఠ ్యాలు",
      "తెలియ జే",
      "ప్రయత్ని స్తున్న",
      "ప్రయత్ని స్తున్నారు",
      "ప్రయత్ని స్తాను",
      "ఉత్త ేజ",
      "కర్ రి",
      "కర్ లు",
      "కర్ సర్",
      "దొ ంగిలి",
      "ఫి న్",
      "బయ ట",
      "స్టా క్",
      "స్టా ర్మ్",
      "క్ర వారం",
      "త్రా లను",
      "ప్రో సె",
      "ప్రో క్సీ",
      "ప్రో గ్రామ్",
      "ంచుకో ను",
      "GR OANS",
      "et te",
      "అలా రం",
      "అలా గే",
      "ఉపయోగి స్తారు",
      "ఎల్ల ెన్",
      "పీ రియన్",
      "వల న",
      "వల సి",
      "శు క్రవారం",
      "సంవత్ సరం",
      "tit ran",
      "పెద్ద ది",
      "జీవి ంచి",
      "మాట్లాడు తున్నారు",
      "మాట్లాడు తున్నారా",
      "CH ING",
      "he h",
      "ఇత ను",
      "నో టీ",
      "పట్ట ణం",
      "బే స్",
      "చేయా లను",
      "చేయా లని",
      "విధ ం",
      "చివరి కి",
      "వ్యా ఖ్యా",
      "మర్చి పోయాను",
      "తీసుకో ండి",
      "ఎంపిక ైంది",
      "అమ్ మే",
      "అమ్ మారు",
      "ఆట Name",
      "ఇం జ",
      "ఇం కా",
      "ఎక్కువ గా",
      "కల లు",
      "కలు పుట",
      "తొ మ్మిది",
      "థీమ్ ‌ను",
      "ఫె న్",
      "ఫె ర్",
      "బడ లేదు",
      "లై న్",
      "లై బ్ర",
      "స్వా గతం",
      "విచా రిస్తున్నాను",
      "ద్ధ మైన",
      "పాట లజాబితా",
      "ంచిన ట్లు",
      "బ్ర ౌ",
      "బ్ర తకా",
      "భాగ మైన",
      "చెప్ప ండి",
      "ప్రారం భ",
      "సంవత్సరా లు",
      "it y",
      "pl es",
      "pl ain",
      "pl ication",
      "గె ట్",
      "గె లిచింది",
      "గర్ వ",
      "జూ దం",
      "భ్ రమ",
      "స్మ ృతి",
      "లిం గ",
      "లిం కు",
      "లేక పో",
      "ప్రమా దం",
      "వుపయోగి ంచుము",
      "వెళ్ లే",
      "ఫైలు ను",
      "దొరక డం",
      "స్నేహి తులు",
      "అమర్చు ము",
      "నిర్వహి ంచడానికి",
      "సృష్టి ంచుము",
      "0x 72",
      "Ba ck",
      "ందా ము",
      "అడ వి",
      "అర్ హత",
      "అర్ బుకుల్",
      "ఆహా రం",
      "చీ ఫ్",
      "జే బు",
      "బూ మ్",
      "రము నకు",
      "రక్షి ంచడానికి",
      "రక్షి ంచే",
      "ప్రి ంటర్",
      "చేస్తా ము",
      "ప్రశ్ న",
      "ప్రశ్ ని",
      "ప్రశ్ నలు",
      "చెయ్య ి",
      "పెట్ట ండి",
      "పరిష్ కార",
      "కనుగొ ంటారు",
      "కనుగొ నేందుకు",
      "పునః స్థాపించుము",
      "సూచి స్తున్నాయి",
      "ప్యాకేజీ లు",
      "ht tp",
      "mb ol",
      "ఆల్ ఫా",
      "ఉన్న ప్పుడు",
      "ఎగు రు",
      "ఎగు మతి",
      "ఒక్క రి",
      "కనీ స",
      "జత చేయుము",
      "జన్ యు",
      "డై రెక్టరీ",
      "డ్యూ క్",
      "డ్యూ ల్",
      "నొక్క ండి",
      "నవ్వు తో",
      "పడ్డా ను",
      "లూ యీ",
      "లూ యిస్",
      "వచనము ను",
      "సర దాగా",
      "హత ్య",
      "హ్యా రీ",
      "హ్యా పీ",
      "నాన్ సీ",
      "ట్ర స్ట్",
      "విశ్ వసి",
      "చిత్ రీక",
      "ప్రదర్ శన",
      "ప్రపంచ ంలో",
      "మిలియన్ ల",
      "ండె డ్",
      "art up",
      "మార్పు లు",
      "బెల్ వెడె",
      "బ్యాక్ ‌గ్ర",
      "ప్రేమి స్తున్నాను",
      "బ్రేక్ లు",
      "నిమిషా ల",
      "నిమిషా లు",
      "కళా శాల",
      "కళా వరు",
      "తొలగి ంపు",
      "కొనసా గే",
      "కుటుం బ",
      "18 0",
      "18 0x",
      "CA R",
      "St artup",
      "Wh at",
      "con fig",
      "gro up",
      "sy stem",
      "sy mbol",
      "అస లు",
      "అంత ర్గత",
      "ఆక ట్టు",
      "ఆక ృతీ",
      "ఆర్ మ్",
      "ఊహి ంచు",
      "ఎక్ ‍స్",
      "ఎక్ స్క్యూజ్",
      "ఎంచు కొనుము",
      "చని పోయిన",
      "చని పోయే",
      "జన వరి",
      "జన రల్",
      "టై గర్",
      "తప్ప క",
      "థి ంక్",
      "నడు పు",
      "నై ల్స్",
      "నమ్మ కం",
      "పం పించు",
      "పడి ంది",
      "పదా లను",
      "పదా ర్థం",
      "మధ్య లో",
      "సొ ంత",
      "హీ న",
      "హో మ్",
      "న్యూ యార్క్",
      "దిగు వ",
      "దిగు మతి",
      "లేడీ స్",
      "విస్ కీ",
      "కిచ కిచ",
      "చిత్ర ములను",
      "ప్రయా ణ",
      "ప్రయా ణం",
      "సందర్ భంలో",
      "మిగిలి న",
      "చెయ ్యాలి",
      "చెల్లి ంచడానికి",
      "అనుకు ంటే",
      "అనుకు ందాము",
      "అనుకూ లంగా",
      "తీయ టానికి",
      "సెషన్ ‌ను",
      "మార్చు ముComment",
      "క్రింది కి",
      "క్రియా శీల",
      "చర్చ లు",
      "స్టీ వ్",
      "స్టీ ఫెన్",
      "ఫైళ్ళ ను",
      "శుభ్ రం",
      "మర్చిపో తే",
      "దెబ్బ తి",
      "అడగ ండి",
      "అడగ వద్దు",
      "వ్రాయ డం",
      "అచేతన ము",
      "అచేతన మైన",
      "సాఫ్ట్ ‍వేర్",
      "1200 x",
      "DO OR",
      "HT ML",
      "Long DayName",
      "OD BCR",
      "by gones",
      "res olution",
      "se arch",
      "war ning",
      "wonder ing",
      "అడ్ డ",
      "అక్ష ర",
      "అదృ ష్టం",
      "అధ్ వాన్నంగా",
      "ఆడియో పుస్త",
      "ఎర్ ల్",
      "ఎక్స్ పీరియన్",
      "ఏర్ పాటు",
      "టై ప్",
      "తర లి",
      "దస్ త్రాన్ని",
      "నవీ కరి",
      "నృత ్యం",
      "పరు చు",
      "పట్టి ంది",
      "బల మైన",
      "భయ పడ్డాను",
      "మరు సటి",
      "మందు లు",
      "మద్ద తు",
      "రష ్యన్",
      "రబ్ బరు",
      "శో ధి",
      "సవరి ంచు",
      "సబ్‌ టైప్",
      "స్వ లింగ",
      "స్యం గా",
      "స్మార్ ట్",
      "రిడ్ జ్",
      "దుస్తు లను",
      "ల్‌ బ్యాక్",
      "విభ జించవచ్చు",
      "విరా మం",
      "చింతి ంచకండి",
      "ప్రకటన లను",
      "సందే శాన్ని",
      "సంగీ తం",
      "సిస్ట మ్",
      "సిద్ధ ంగా",
      "మేజి క్",
      "దాయు ము",
      "వెళు తున్న",
      "వెనుక భాగం",
      "రంగస్థ ల",
      "బాధి ంచింది",
      "కేం ద్రం",
      "పొయానుQ ODBCR",
      "అనుసరి ంచండి",
      "పోరా డటానికి",
      "ord ad",
      "ఫ్రా ంక్",
      "పెట్టు బడి",
      "సమూ హము",
      "సెర్ వర్",
      "సెకన్ లు",
      "అంగ స్",
      "కోరుకుంటున్నా ము",
      "నెట్ వర్",
      "హెచ్చ రిక",
      "పాఠ్య ము",
      "తీసుకురా లేక",
      "రంగులు pal",
      "భాగస్వా మి",
      "దగ్గు కు",
      "కోల్పో తారు",
      "స్పష్ట ంగా",
      "టెక్చర్ స్",
      "exam ples",
      "అభ్య ర్ధన",
      "శీర్షిక పట్టీ",
      "Gener icName",
      "మరణి స్తారు",
      "నిలిపి వేయ",
      "అనువదించు Qu",
      "747 7",
      "=\\\\ \\\\",
      "Bal oo",
      "CJ K",
      "Cont rol",
      "Ctr l",
      "EE CHING",
      "FL INT",
      "Gre ely",
      "Jo es",
      "Kh ordad",
      "Mm m",
      "Mul titran",
      "No t",
      "Rem ote",
      "Ros ie",
      "Sp elling",
      "Set ting",
      "SCR EECHING",
      "Sorb onne",
      "TV ON",
      "Vi ka",
      "Wor ldwide",
      "ap plication",
      "clat ters",
      "kno wn",
      "other fuck",
      "ser ver",
      "scho olin",
      "tas k",
      "అక్ర మ",
      "ఆకర్ షించింది",
      "ఆటిన్ ల్",
      "ఇటీ వలి",
      "ఉద యం",
      "ఉచి త",
      "ఉపా యాలు",
      "ఉచ్ఛ ారణ",
      "ఎలుగు బంటి",
      "ఏను గు",
      "కదు పు",
      "గూ ఢ",
      "గౌ ర",
      "చంపు తానని",
      "తప దము",
      "తని ఖీ",
      "తదు పరి",
      "తమా షా",
      "దత్తా ం",
      "నమూ నా",
      "నమో ద",
      "పక్ష ులు",
      "భవ నం",
      "మౌ స్",
      "మంచ ం",
      "వస్తున్న ట్లు",
      "శై లి",
      "సమ్ మె",
      "సత్యం కు",
      "ిన్న ం",
      "‌టె ండెడ్",
      "నిరా కరించారు",
      "నిలప డానికి",
      "స్పా నిష్",
      "స్వయ ంచాలక",
      "క్రీ మ్",
      "రిసై టల్",
      "రింగి ంగ్",
      "మీరుగొన్న ఏమిటి",
      "ట్రం క్",
      "కాంక్ వెరర్",
      "కాంబ్ స్",
      "విదే శీ",
      "విద్య ు",
      "విక్ర యి",
      "విచ్ఛ ిన్నం",
      "రాబో యే",
      "చిరునా మా",
      "యిప్పటి కే",
      "ప్రచు రణ",
      "ప్రభావి తం",
      "సంతా నం",
      "సంతో ష",
      "సంకే తపదము",
      "వుపదర్ శనము",
      "పాయింట్ లు",
      "తెలప ండి",
      "తెడ్డు88 కు",
      "చూస్తున్నా నని",
      "వెంటా డుకునే",
      "రంధ్ రాలు",
      "బ్రె ండా",
      "సాధా రణ",
      "సారూ ప్య",
      "సాంకే తిక",
      "indo w",
      "బాస్టర్ డ్",
      "సెప్టె ంబరు",
      "చేయబో తున్నారో",
      "కీబో ర్డు",
      "టునై ట్",
      "వెళ్ళిపోయా డు",
      "అంగుళా ల",
      "గోప్య తా",
      "ఇన్స్టా ల్",
      "ఫాబ్రి క్",
      "శీఘ్ ర",
      "దొంగిలి ంచారు",
      "ఎంపికైంది Name",
      "లైబ్ర రీ",
      "బ్రతకా లని",
      "చిత్రీక రించిన",
      "బెల్వెడె రే",
      "కళావరు ల",
      "ఎక్‍స్ ‌టెండెడ్",
      "సాఫ్ట్‍వేర్ ‌ను",
      "ఎక్స్పీరియన్ స్",
      "వెనుకభాగం లో",
      "పొయానుQODBCR esult",
      "రంగులుpal ette",
      "అనువదించుQu ery",
      "Setting s",
      "Worldwide 7477"
    ]
  }
}